{"Ā": 0, "ā": 1, "Ă": 2, "ă": 3, "Ą": 4, "ą": 5, "Ć": 6, "ć": 7, "Ĉ": 8, "ĉ": 9, "Ċ": 10, "ċ": 11, "Č": 12, "č": 13, "Ď": 14, "ď": 15, "Đ": 16, "đ": 17, "Ē": 18, "ē": 19, "Ĕ": 20, "ĕ": 21, "Ė": 22, "ė": 23, "Ę": 24, "ę": 25, "Ě": 26, "ě": 27, "Ĝ": 28, "ĝ": 29, "Ğ": 30, "ğ": 31, "Ġ": 32, "!": 33, "\"": 34, "#": 35, "$": 36, "%": 37, "&": 38, "'": 39, "(": 40, ")": 41, "*": 42, "+": 43, ",": 44, "-": 45, ".": 46, "/": 47, "0": 48, "1": 49, "2": 50, "3": 51, "4": 52, "5": 53, "6": 54, "7": 55, "8": 56, "9": 57, ":": 58, ";": 59, "<": 60, "=": 61, ">": 62, "?": 63, "@": 64, "A": 65, "B": 66, "C": 67, "D": 68, "E": 69, "F": 70, "G": 71, "H": 72, "I": 73, "J": 74, "K": 75, "L": 76, "M": 77, "N": 78, "O": 79, "P": 80, "Q": 81, "R": 82, "S": 83, "T": 84, "U": 85, "V": 86, "W": 87, "X": 88, "Y": 89, "Z": 90, "[": 91, "\\": 92, "]": 93, "^": 94, "_": 95, "`": 96, "a": 97, "b": 98, "c": 99, "d": 100, "e": 101, "f": 102, "g": 103, "h": 104, "i": 105, "j": 106, "k": 107, "l": 108, "m": 109, "n": 110, "o": 111, "p": 112, "q": 113, "r": 114, "s": 115, "t": 116, "u": 117, "v": 118, "w": 119, "x": 120, "y": 121, "z": 122, "{": 123, "|": 124, "}": 125, "~": 126, "ġ": 127, "Ģ": 128, "ģ": 129, "Ĥ": 130, "ĥ": 131, "Ħ": 132, "ħ": 133, "Ĩ": 134, "ĩ": 135, "Ī": 136, "ī": 137, "Ĭ": 138, "ĭ": 139, "Į": 140, "į": 141, "İ": 142, "ı": 143, "Ĳ": 144, "ĳ": 145, "Ĵ": 146, "ĵ": 147, "Ķ": 148, "ķ": 149, "ĸ": 150, "Ĺ": 151, "ĺ": 152, "Ļ": 153, "ļ": 154, "Ľ": 155, "ľ": 156, "Ŀ": 157, "ŀ": 158, "Ł": 159, "ł": 160, "¡": 161, "¢": 162, "£": 163, "¤": 164, "¥": 165, "¦": 166, "§": 167, "¨": 168, "©": 169, "ª": 170, "«": 171, "¬": 172, "Ń": 173, "®": 174, "¯": 175, "°": 176, "±": 177, "²": 178, "³": 179, "´": 180, "µ": 181, "¶": 182, "·": 183, "¸": 184, "¹": 185, "º": 186, "»": 187, "¼": 188, "½": 189, "¾": 190, "¿": 191, "À": 192, "Á": 193, "Â": 194, "Ã": 195, "Ä": 196, "Å": 197, "Æ": 198, "Ç": 199, "È": 200, "É": 201, "Ê": 202, "Ë": 203, "Ì": 204, "Í": 205, "Î": 206, "Ï": 207, "Ð": 208, "Ñ": 209, "Ò": 210, "Ó": 211, "Ô": 212, "Õ": 213, "Ö": 214, "×": 215, "Ø": 216, "Ù": 217, "Ú": 218, "Û": 219, "Ü": 220, "Ý": 221, "Þ": 222, "ß": 223, "à": 224, "á": 225, "â": 226, "ã": 227, "ä": 228, "å": 229, "æ": 230, "ç": 231, "è": 232, "é": 233, "ê": 234, "ë": 235, "ì": 236, "í": 237, "î": 238, "ï": 239, "ð": 240, "ñ": 241, "ò": 242, "ó": 243, "ô": 244, "õ": 245, "ö": 246, "÷": 247, "ø": 248, "ù": 249, "ú": 250, "û": 251, "ü": 252, "ý": 253, "þ": 254, "ÿ": 255, "<|endoftext|>": 256, "Ġt": 257, "Ġa": 258, "he": 259, "in": 260, "re": 261, "Ġthe": 262, "on": 263, "er": 264, "Ġs": 265, "Ġw": 266, "at": 267, "Ġo": 268, "en": 269, "Ġc": 270, "it": 271, "is": 272, "an": 273, "or": 274, "Ġb": 275, "es": 276, "ed": 277, "Ġf": 278, "ing": 279, "Ġp": 280, "ou": 281, "Ġan": 282, "al": 283, "Ġto": 284, "ar": 285, "Ġm": 286, "Ġin": 287, "Ġof": 288, "Ġh": 289, "Ġd": 290, "âĢ": 291, "as": 292, "ic": 293, "Ġand": 294, "Ġth": 295, "le": 296, "om": 297, "ion": 298, "ll": 299, "ent": 300, "Ġn": 301, "Ġl": 302, "Ġre": 303, "st": 304, "ve": 305, "Ġe": 306, "ly": 307, "ro": 308, "Ġbe": 309, "Ġg": 310, "id": 311, "ut": 312, "ac": 313, "ot": 314, "ĠT": 315, "ĠI": 316, "Ġthat": 317, "Ġon": 318, "ay": 319, "ĠS": 320, "Ġis": 321, "et": 322, "im": 323, "am": 324, "ad": 325, "ow": 326, "se": 327, "ig": 328, "Ġfor": 329, "âĢĻ": 330, "ĠA": 331, "ver": 332, "ur": 333, "ct": 334, "ld": 335, "ĠC": 336, "Ġu": 337, "Ġst": 338, "Ġy": 339, "Ġit": 340, "Ġhe": 341, "ir": 342, "ation": 343, "ith": 344, "Ġwh": 345, "ĠM": 346, "ce": 347, "ter": 348, "ol": 349, "Ġwe": 350, "il": 351, "Ġwith": 352, "Ġas": 353, "ĠB": 354, "ch": 355, "ill": 356, "nd": 357, "ĠP": 358, "Ġwas": 359, "ers": 360, "Ġyou": 361, "ke": 362, "ĠâĢ": 363, "Ġcon": 364, "Ġde": 365, "Ġr": 366, "her": 367, "if": 368, "ate": 369, "ag": 370, "Ġat": 371, "Ġha": 372, "ĠW": 373, "Ġse": 374, "ĠH": 375, "ore": 376, "Ġpro": 377, "ul": 378, "pp": 379, "ment": 380, "ri": 381, "Ġare": 382, "ĠD": 383, "Ġ1": 384, "us": 385, "est": 386, "ist": 387, "Ġcom": 388, "and": 389, "ĠR": 390, "op": 391, "ain": 392, "ĠThe": 393, "Ġ2": 394, "igh": 395, "rom": 396, "Ġ(": 397, "ort": 398, "od": 399, "Ġne": 400, "ĠF": 401, "um": 402, "un": 403, "Ġex": 404, "res": 405, "ab": 406, "âĢĿ": 407, "Ġnot": 408, "ĠN": 409, "Ġv": 410, "ess": 411, "Ġhave": 412, "ity": 413, "em": 414, "ould": 415, "Ġor": 416, "th": 417, "Ġby": 418, "os": 419, "ant": 420, "ĠG": 421, "ive": 422, "Ġfrom": 423, "Ġal": 424, "el": 425, "'s": 426, "oc": 427, "art": 428, "Ġsu": 429, "ĠL": 430, "Ġsh": 431, "Ġthis": 432, "nt": 433, "qu": 434, "ight": 435, "pe": 436, "ust": 437, "Ġle": 438, "ies": 439, "ĠE": 440, "end": 441, "Ġch": 442, "Ġsa": 443, "out": 444, "Ġab": 445, "The": 446, "all": 447, "ie": 448, "ack": 449, "red": 450, "00": 451, "ĠâĢľ": 452, "Ġhas": 453, "ally": 454, "ĠJ": 455, "Ġpl": 456, "Ġgo": 457, "ard": 458, "iv": 459, "Ġhis": 460, "ome": 461, "ap": 462, "ost": 463, "gh": 464, "ear": 465, "ĠO": 466, "Ġtr": 467, "our": 468, "ast": 469, "Ġj": 470, "ak": 471, "ud": 472, "Ġdo": 473, "Ġthey": 474, "Ġbut": 475, "Ġwor": 476, "rou": 477, "Ġcan": 478, "ge": 479, "Ġwill": 480, "Ġsaid": 481, "Ġwhe": 482, "ĠU": 483, "Ġk": 484, "ich": 485, "Ġall": 486, "ok": 487, "Ġ\"": 488, "ide": 489, "Ġwho": 490, "Ġint": 491, "ame": 492, "ans": 493, "ther": 494, "ial": 495, "Ġout": 496, "ff": 497, "Ġtheir": 498, "ong": 499, "ect": 500, "pl": 501, "ice": 502, "ure": 503, "pt": 504, "one": 505, "Ġmore": 506, "age": 507, "ions": 508, "act": 509, "ike": 510, "Ġme": 511, "Ġup": 512, "ous": 513, "ine": 514, "Ġad": 515, "Ġabout": 516, "ated": 517, "ra": 518, "ber": 519, "Ġone": 520, "Ġwere": 521, "Ġso": 522, "Ġus": 523, "ime": 524, "og": 525, "ĠK": 526, "ep": 527, "ia": 528, "Ġhad": 529, "are": 530, "ub": 531, "cc": 532, "Ġwould": 533, "Ġcl": 534, "Ġ20": 535, "Ġim": 536, "Ġwhich": 537, "ind": 538, "ue": 539, "ake": 540, "Ġcont": 541, "iz": 542, "very": 543, "Ġag": 544, "Ġte": 545, "Ġoff": 546, "Ġcomp": 547, "Ġun": 548, "Ġbeen": 549, "ĠSt": 550, "so": 551, "Ġen": 552, "per": 553, "ign": 554, "au": 555, "ĠTh": 556, "ary": 557, "ace": 558, "Ġyear": 559, "ip": 560, "ew": 561, "Ġlike": 562, "ere": 563, "ven": 564, "ook": 565, "Ġinc": 566, "ays": 567, "Ġman": 568, "Ġpe": 569, "ry": 570, "ose": 571, "Ġres": 572, "able": 573, "ite": 574, "Ġper": 575, "ass": 576, "ord": 577, "Ġsp": 578, "ire": 579, "ĠIn": 580, "Ġother": 581, "mer": 582, "Ġsome": 583, "ile": 584, "ib": 585, "ence": 586, "ople": 587, "Ġ201": 588, "ks": 589, "ations": 590, "Ġover": 591, "ical": 592, "Ġthere": 593, "ress": 594, "Ġdis": 595, "ult": 596, "int": 597, "Ġnew": 598, "own": 599, "Ġalso": 600, "Ġthan": 601, "Ġar": 602, "Ġbec": 603, "ru": 604, "Ġthem": 605, "ance": 606, "ount": 607, "ough": 608, "Ġapp": 609, "port": 610, "ail": 611, "Ġpart": 612, "Ġyour": 613, "Ġwhen": 614, "ree": 615, "Ġwhat": 616, "orm": 617, "ond": 618, "Ġpeople": 619, "fter": 620, "Ġsc": 621, "ĠCh": 622, "av": 623, "ase": 624, "Ġqu": 625, "Ġany": 626, "Ġjust": 627, "Ġits": 628, "ĠY": 629, "ach": 630, "Ġtime": 631, "ĠIt": 632, "Ġkn": 633, "Ġher": 634, "Ġ3": 635, "ens": 636, "lic": 637, "Ġrec": 638, "reat": 639, "Ġmy": 640, "Ġget": 641, "Ġif": 642, "ĠV": 643, "ian": 644, ".âĢĿ": 645, "Ġinto": 646, "ound": 647, "Ġwork": 648, "Ġtw": 649, "irst": 650, "vel": 651, "ction": 652, "Ġno": 653, "du": 654, "ings": 655, "ory": 656, "ick": 657, "ors": 658, "Ġour": 659, "ition": 660, "ident": 661, "ob": 662, "Ġ-": 663, "Ġpre": 664, "ove": 665, "Ġplay": 666, "ang": 667, "ink": 668, "ause": 669, "wn": 670, "te": 671, "amp": 672, "ade": 673, "hing": 674, "ates": 675, "ark": 676, "Ġro": 677, "Ġpol": 678, "Ġshe": 679, "vers": 680, "Ġco": 681, ",âĢĿ": 682, "Ġafter": 683, "ne": 684, "Ġfirst": 685, "Ġcould": 686, "Ġhow": 687, "ĠHe": 688, "Ġ19": 689, "ious": 690, "nder": 691, "ild": 692, "Ġacc": 693, "Ġhim": 694, "aw": 695, "'t": 696, "ons": 697, "Ġpo": 698, "Ġonly": 699, "Ġfe": 700, "Ġatt": 701, "ict": 702, "hed": 703, "Ġpr": 704, "Ġtwo": 705, "rit": 706, "ov": 707, "ish": 708, "Ġcomm": 709, "âĢľ": 710, "form": 711, "Ġspe": 712, "Ġact": 713, "we": 714, "erv": 715, "Ġbl": 716, "ft": 717, "Ġbet": 718, "Ġdec": 719, ".\"": 720, "ning": 721, "Ġback": 722, "Ġmost": 723, "ces": 724, "ood": 725, "ck": 726, "ĠâĢĵ": 727, "Ġam": 728, "oy": 729, "Ġdid": 730, "rough": 731, "iff": 732, "ater": 733, "round": 734, "Ġagain": 735, "Ġ4": 736, "ual": 737, "day": 738, "ise": 739, "Ġunder": 740, "Ġdes": 741, "Ġwant": 742, "ull": 743, "sel": 744, "Ġcons": 745, "ĠâĢĶ": 746, "..": 747, "Ġbecause": 748, "Ġnow": 749, "lud": 750, "ents": 751, "Ġyears": 752, "man": 753, "tern": 754, "ublic": 755, "ec": 756, "Ġneed": 757, "Ġeven": 758, "Ġ$": 759, "iss": 760, "Ġinv": 761, "Ġknow": 762, "ĠWe": 763, "Ġsee": 764, "ments": 765, "ced": 766, "Ġadd": 767, ",\"": 768, "ting": 769, "old": 770, "Ġind": 771, "Ġsec": 772, "fore": 773, "uch": 774, "Ġevery": 775, "urn": 776, "Ġ5": 777, "Ġsupp": 778, "Ġmake": 779, "pect": 780, "ĠUn": 781, "Ġem": 782, "Ġthese": 783, "ock": 784, "oll": 785, "Ġwhere": 786, "ject": 787, "In": 788, "ational": 789, "vern": 790, "xt": 791, "Ġbu": 792, "Ġlook": 793, "Th": 794, "ĠAnd": 795, "oss": 796, "Ġdon": 797, "Ġev": 798, "ump": 799, "ating": 800, "Ġway": 801, "Ġbeing": 802, "Ġrem": 803, "Ġright": 804, "ily": 805, "Ġmay": 806, "ng": 807, "row": 808, "lect": 809, "iew": 810, "Ġthen": 811, "Ġmany": 812, "Ġ[": 813, "Ġdiff": 814, "Ġdef": 815, "ason": 816, "Ġrel": 817, "Ġcall": 818, "ĠBut": 819, "ĠTr": 820, "ont": 821, "ied": 822, "les": 823, "ased": 824, "Ġinclud": 825, "Ġthink": 826, "aking": 827, "Ġreg": 828, ").": 829, "meric": 830, "Ġimp": 831, "Ġthrough": 832, "ath": 833, "ited": 834, "rib": 835, "Ġsy": 836, "Ġshould": 837, "Ġpres": 838, "Ġsay": 839, "ell": 840, "Ġfl": 841, "uring": 842, "Ġlast": 843, "Ġthose": 844, "ower": 845, "Ġvery": 846, "ty": 847, "other": 848, "Ġmuch": 849, "ities": 850, "ific": 851, "Ġstate": 852, "ĠThis": 853, "ative": 854, "Ġshow": 855, "tle": 856, "hen": 857, "Ġbr": 858, "ss": 859, "arg": 860, "Ġwell": 861, "oth": 862, "Ġph": 863, "ĠWh": 864, "Ġcount": 865, "als": 866, "und": 867, "Ġ200": 868, "Ġdoes": 869, "Ġdown": 870, "Ġown": 871, "arly": 872, "Ġend": 873, "Ġass": 874, "Ġbel": 875, "Ġuse": 876, "ics": 877, "ange": 878, "--": 879, "ts": 880, "Ġlong": 881, "ĠAmeric": 882, "ters": 883, "ince": 884, "Ġbefore": 885, "omet": 886, "gr": 887, "Ġmon": 888, "ward": 889, "Ġgovern": 890, "Ġstart": 891, "Ġreport": 892, "ible": 893, "Ġke": 894, "up": 895, "ues": 896, "ĠNew": 897, "Ġfin": 898, "Ġteam": 899, "ble": 900, "Ġmade": 901, "ife": 902, "olog": 903, "ener": 904, "),": 905, "Ġsuch": 906, "ren": 907, "com": 908, "oun": 909, "erson": 910, "ek": 911, "ix": 912, "Ġsm": 913, "âĢĶ": 914, "lp": 915, "ility": 916, "Ġgoing": 917, "ism": 918, "ful": 919, "Ġworld": 920, "ually": 921, "Ġstud": 922, "ists": 923, "Ġgood": 924, "Ġac": 925, "tain": 926, "It": 927, "Ġsub": 928, "Ġeff": 929, "Ġsur": 930, "Ġagainst": 931, "its": 932, "Ġgame": 933, "Ġset": 934, "ork": 935, "Ġ6": 936, "Ġgu": 937, "Ġpoint": 938, "Ġent": 939, "ys": 940, "000": 941, "gan": 942, "ars": 943, "li": 944, "stem": 945, "Ġprov": 946, "Ġstill": 947, "roup": 948, "Ġwhile": 949, "illion": 950, "Ġhelp": 951, "Ġlead": 952, "Ġmin": 953, "ween": 954, "ef": 955, "ax": 956, "ank": 957, "alk": 958, "imes": 959, "Ġsays": 960, "Ġob": 961, "ms": 962, "cy": 963, "Ġprodu": 964, "Ġgr": 965, "Ġinter": 966, "Ġinst": 967, "Ġstr": 968, "cess": 969, "Ġsim": 970, "io": 971, "self": 972, "Ġconf": 973, "Ġcol": 974, "Ġtake": 975, "ures": 976, "arch": 977, "Ġsame": 978, "Ġthough": 979, "Ġbetween": 980, "ollow": 981, "Ġoffic": 982, "ever": 983, "Ġcr": 984, "Ġdiffere": 985, "ool": 986, "uss": 987, "ution": 988, "land": 989, "Ġdisc": 990, "air": 991, "Ġop": 992, "ah": 993, "Ġed": 994, "Ġhigh": 995, "read": 996, "Ġnum": 997, "Ġlaw": 998, "Ġsign": 999, "way": 1000, "Ġgovernment": 1001, "gg": 1002, "ĠRe": 1003, "led": 1004, "ner": 1005, "hip": 1006, "atch": 1007, "hes": 1008, "ames": 1009, "any": 1010, "Ġter": 1011, "Ġsomet": 1012, "cent": 1013, "velop": 1014, "ted": 1015, "We": 1016, "Ġref": 1017, "Ġtrans": 1018, "ten": 1019, "Ġins": 1020, "Ġrun": 1021, "Ġser": 1022, "Ġfound": 1023, "Ġthree": 1024, "ives": 1025, "ave": 1026, "Ġmem": 1027, "Ġaround": 1028, "Ġhere": 1029, "ather": 1030, "Ġmed": 1031, "Ġreal": 1032, "Ġused": 1033, "ouse": 1034, "Ġ10": 1035, "ved": 1036, "Ġexp": 1037, "az": 1038, "ĠAr": 1039, "cept": 1040, "oot": 1041, "Ġsystem": 1042, "ĠYou": 1043, "ci": 1044, "Ġreally": 1045, "Ġmod": 1046, "ving": 1047, "con": 1048, "cer": 1049, "Ġgroup": 1050, "Ġsupport": 1051, "Ġ7": 1052, "Ġcour": 1053, "ets": 1054, "ale": 1055, "ins": 1056, "Ġret": 1057, "Ġhand": 1058, "Ġpublic": 1059, "Ġspec": 1060, "pr": 1061, "ĠLe": 1062, "ying": 1063, "Ġgreat": 1064, "Ġcar": 1065, "ense": 1066, "Ġext": 1067, ".[": 1068, "ton": 1069, "irect": 1070, "Ġcur": 1071, "Ġfam": 1072, "ĠCom": 1073, "alth": 1074, "Ġhapp": 1075, "Ġfact": 1076, "ph": 1077, "Ġexper": 1078, "ĠThey": 1079, "ĠTrump": 1080, "Ġfr": 1081, "Ġwom": 1082, "ĠIs": 1083, "Ġcap": 1084, "Ġboth": 1085, "Ġday": 1086, "Ġfind": 1087, "ĠAl": 1088, "ular": 1089, "Ġread": 1090, "ines": 1091, "oh": 1092, "ices": 1093, "Ġdet": 1094, "Ġlit": 1095, "Ġsl": 1096, "Ġrep": 1097, "uth": 1098, "ered": 1099, "Ġduring": 1100, "ĠSh": 1101, "ĠAs": 1102, "Ġ0": 1103, "Ġserv": 1104, "Ġmonth": 1105, "min": 1106, "the": 1107, "ision": 1108, "Ġcre": 1109, "Ġdevelop": 1110, "Ġbig": 1111, "Ġ8": 1112, "Ġperson": 1113, "akes": 1114, "Ġfollow": 1115, "ĠCl": 1116, "Ġiss": 1117, "ex": 1118, "Ġtold": 1119, "Ġsince": 1120, "ared": 1121, "med": 1122, "ically": 1123, "Ġweek": 1124, "ages": 1125, "ivers": 1126, "Ġwar": 1127, "Ġfew": 1128, "orth": 1129, "ording": 1130, "Ġcent": 1131, "Ġleg": 1132, "aj": 1133, "get": 1134, "Ġpolit": 1135, "ves": 1136, "ash": 1137, "Ġexpl": 1138, "Ġlot": 1139, "ric": 1140, "ĠSe": 1141, "Ġbelie": 1142, "Ġgener": 1143, "Ġtoo": 1144, "Ġ9": 1145, "der": 1146, "ata": 1147, "rent": 1148, "Ġopp": 1149, "Wh": 1150, "Ġrequ": 1151, "Ġcontin": 1152, "Ġprot": 1153, "iet": 1154, "bers": 1155, "anc": 1156, "Ġfil": 1157, "ention": 1158, "ness": 1159, "Ġcle": 1160, "Ġresp": 1161, "Ġput": 1162, "ized": 1163, "ĠIf": 1164, "Ġanother": 1165, "20": 1166, "chool": 1167, "Ġinf": 1168, "Ġsomething": 1169, "ĠDe": 1170, "Ġdifferent": 1171, "Ġcor": 1172, "Ġloc": 1173, "ute": 1174, "Ġinvest": 1175, "Ġsoc": 1176, "Ġpower": 1177, "Ġche": 1178, "uc": 1179, "Ġ'": 1180, "Ġpass": 1181, "Ġcommun": 1182, "Ġlife": 1183, "ĠFr": 1184, "Ġplan": 1185, "ody": 1186, "Ġrele": 1187, "ience": 1188, "Ġhead": 1189, "Ġthings": 1190, "ned": 1191, "Ġfar": 1192, "Ġart": 1193, "Ġposs": 1194, "Ġmet": 1195, "thing": 1196, "ox": 1197, "erest": 1198, "Ġcamp": 1199, "ross": 1200, "arge": 1201, "Ġvot": 1202, "ier": 1203, "This": 1204, "view": 1205, "Ġchild": 1206, "ants": 1207, "Ġask": 1208, "Ġ.": 1209, "Ġmight": 1210, "Ġeach": 1211, "ize": 1212, "iness": 1213, "Ġdep": 1214, "Ġnever": 1215, "Ġnext": 1216, "ik": 1217, "ield": 1218, "Ġsecond": 1219, "Ġmark": 1220, "tt": 1221, "Ġquest": 1222, "Ġbus": 1223, "Ġadv": 1224, "ĠAn": 1225, "Ġdem": 1226, "ĠFor": 1227, "Ġcome": 1228, "Ġgot": 1229, "ĠâĢĺ": 1230, "Ġopen": 1231, "Ġbest": 1232, "ient": 1233, "ital": 1234, "Ġallow": 1235, "ĠThat": 1236, "rat": 1237, "Ġseem": 1238, "Ġpost": 1239, "ple": 1240, "nce": 1241, "Ġfeel": 1242, "ĠPro": 1243, "ĠUS": 1244, "ug": 1245, "Ġpri": 1246, "gram": 1247, "Ġpercent": 1248, "cl": 1249, "Ġhome": 1250, "Ġdist": 1251, "Ġdirect": 1252, "ired": 1253, "Ġincre": 1254, "Ġcontro": 1255, "ĠRep": 1256, "son": 1257, "orn": 1258, "less": 1259, "osed": 1260, "Ġresult": 1261, "Ġhard": 1262, "Ġcare": 1263, "ately": 1264, "Ġmillion": 1265, "chn": 1266, "Ġcomple": 1267, "Ġplace": 1268, "Ġwithout": 1269, "Ġinform": 1270, "Ġincluding": 1271, "Ġimport": 1272, "Ġav": 1273, "conom": 1274, "Ġhum": 1275, "Ġide": 1276, "Ġproble": 1277, "Ġbuild": 1278, "Ġtop": 1279, "ama": 1280, "Ġnumber": 1281, "Ġcountry": 1282, "gy": 1283, "oney": 1284, "aim": 1285, "ĠBl": 1286, "ret": 1287, "ral": 1288, "ably": 1289, "uro": 1290, "Ġstand": 1291, "Ġgl": 1292, "Ġel": 1293, "riend": 1294, "Ġfour": 1295, "ished": 1296, "ways": 1297, "Ġpartic": 1298, "Ġbetter": 1299, "co": 1300, "Ġtri": 1301, "But": 1302, "Ġrecent": 1303, "Ġinterest": 1304, "Ġmov": 1305, "Ġlet": 1306, "ration": 1307, "Ġseason": 1308, "Ġless": 1309, "ead": 1310, "Ġturn": 1311, "Ġlittle": 1312, "Ġbeh": 1313, "Ġmil": 1314, "Ġappro": 1315, "ract": 1316, "line": 1317, "Ġbro": 1318, "ling": 1319, "ised": 1320, "Ġcalled": 1321, "app": 1322, "10": 1323, "Ġcase": 1324, "Ġdr": 1325, "ĠInd": 1326, "Ġrest": 1327, "Ġleft": 1328, "Ġpop": 1329, "Ġann": 1330, "ĠZ": 1331, "ency": 1332, "ode": 1333, "Ġmove": 1334, "ina": 1335, "Ġattack": 1336, "ĠThere": 1337, "Ġkeep": 1338, "Ġfull": 1339, "ering": 1340, "Ġdidn": 1341, "be": 1342, "Ġfun": 1343, "Ġmain": 1344, "ajor": 1345, "__": 1346, "Ġeffect": 1347, "inal": 1348, "me": 1349, "leg": 1350, "Ġprev": 1351, "Ġprogram": 1352, "Ġusing": 1353, "Ġtest": 1354, "Ġpay": 1355, "to": 1356, "ature": 1357, "Ġear": 1358, "Ġval": 1359, "Ġpolice": 1360, "Ġwrit": 1361, "Ġform": 1362, "Ġeconom": 1363, "Ġdata": 1364, "Ġnews": 1365, "Ġpos": 1366, "Ġwin": 1367, "ĠAmerican": 1368, "Ġlevel": 1369, "Ġsit": 1370, "Ġchar": 1371, "ains": 1372, "iving": 1373, "uck": 1374, "Ġsmall": 1375, "ined": 1376, "ready": 1377, "He": 1378, "Ġschool": 1379, "Ġlist": 1380, "ology": 1381, "rap": 1382, "mit": 1383, "ided": 1384, "ploy": 1385, "'re": 1386, "ger": 1387, "Ġeas": 1388, "Ġprocess": 1389, "ird": 1390, "Ġchange": 1391, "Ġwomen": 1392, "Ġcurrent": 1393, "Ġrece": 1394, "Ġprom": 1395, "Ġhist": 1396, "Ġdri": 1397, "Ġ=": 1398, "ians": 1399, "reen": 1400, "Ġpresident": 1401, "Ġcompany": 1402, "ĠSo": 1403, "used": 1404, "Ġmat": 1405, "ruct": 1406, "Ġalready": 1407, "ohn": 1408, "ĠUnited": 1409, "wit": 1410, "Ġty": 1411, "Ġwhy": 1412, "Ġbre": 1413, "Ġunt": 1414, "Ġmoney": 1415, "Ġsol": 1416, "Ġalways": 1417, "Ġlater": 1418, "Ġexpect": 1419, "Ġtechn": 1420, "Ġbusiness": 1421, "ĠHow": 1422, "Ġofficial": 1423, "ron": 1424, "ĠQ": 1425, "ĠOb": 1426, "stand": 1427, "iversity": 1428, "Ġbo": 1429, "Ġbook": 1430, "ĠPh": 1431, "aign": 1432, "Ġthing": 1433, "Ġclass": 1434, "Ġproject": 1435, "ases": 1436, "Ġclaim": 1437, "Ġjob": 1438, "Ġinformation": 1439, "Ġorgan": 1440, "aff": 1441, "ĠShe": 1442, "ards": 1443, "Ġtalk": 1444, "ĠBe": 1445, "Ġdesign": 1446, "Ġstory": 1447, "Ġchang": 1448, "Ġmajor": 1449, "Ġable": 1450, "Ġprof": 1451, "Ġ--": 1452, "...": 1453, "lection": 1454, "iven": 1455, "ertain": 1456, "Ġrese": 1457, "Ġhealth": 1458, "Ġvis": 1459, "Ġpast": 1460, "urs": 1461, "Ġfree": 1462, "here": 1463, "outh": 1464, "ĠAd": 1465, "Ġoper": 1466, "ption": 1467, "Ġaway": 1468, "ior": 1469, "ĠCan": 1470, "Ġmust": 1471, "Ġcity": 1472, "ample": 1473, "rist": 1474, "sc": 1475, "ural": 1476, "Ġhappen": 1477, "uthor": 1478, "Ġ18": 1479, "Ġimportant": 1480, "acy": 1481, "urity": 1482, "Ġkill": 1483, "Ġsk": 1484, "Ġest": 1485, "ured": 1486, "Ġold": 1487, "Ġpat": 1488, "ury": 1489, "ending": 1490, "Ġdoesn": 1491, "ission": 1492, "Ġleast": 1493, "Ġgrow": 1494, "Ġedit": 1495, "Ġvar": 1496, "ained": 1497, "St": 1498, "Ġcost": 1499, "ĠGo": 1500, "ney": 1501, "ider": 1502, "ides": 1503, "els": 1504, "Ġdays": 1505, "Ġtell": 1506, "Ġhop": 1507, "Ġstre": 1508, "Ġcampaign": 1509, "side": 1510, "Ġ12": 1511, "Ġmen": 1512, "Ġcame": 1513, "Ġaff": 1514, "Ġconst": 1515, "resident": 1516, "Ġenough": 1517, "Ġview": 1518, "ccess": 1519, "Ġkind": 1520, "ĠMar": 1521, "oad": 1522, "ĠSp": 1523, "ern": 1524, "Ġmaking": 1525, "Ġlarge": 1526, "Ġrecord": 1527, "50": 1528, "ush": 1529, "Ġfriend": 1530, "Ġmar": 1531, "Ġfamily": 1532, "âĢ¦": 1533, "ley": 1534, "Ġelect": 1535, "eral": 1536, "Ġpolic": 1537, "Ġtax": 1538, "ising": 1539, "by": 1540, "pped": 1541, "ality": 1542, "ator": 1543, "ified": 1544, "As": 1545, "ived": 1546, "arent": 1547, "ror": 1548, "Ġuntil": 1549, "ional": 1550, "Ġpolitical": 1551, "Ġvide": 1552, "Ġdeal": 1553, "ee": 1554, "ries": 1555, "alf": 1556, "augh": 1557, "Ġve": 1558, "Ġworking": 1559, "ued": 1560, "ĠRepublic": 1561, "Ġtook": 1562, "Ġdeb": 1563, "bs": 1564, "If": 1565, "ister": 1566, "Ġline": 1567, "ĠJohn": 1568, "aining": 1569, "Ġair": 1570, "----": 1571, "Ġes": 1572, "Ġintern": 1573, "Ġfore": 1574, "iol": 1575, "ane": 1576, "ocrat": 1577, "Ġbecome": 1578, "Ġactually": 1579, "aps": 1580, "ony": 1581, "Ġmean": 1582, "work": 1583, "Ġfund": 1584, "ĠSc": 1585, "ware": 1586, "19": 1587, "ember": 1588, "ĠPl": 1589, "Ġformer": 1590, "Ġoften": 1591, "ĠEuro": 1592, "ott": 1593, "ann": 1594, "Ġwon": 1595, "Ġgive": 1596, "oint": 1597, "Ġaccording": 1598, "Ġever": 1599, "most": 1600, "eng": 1601, "year": 1602, "wh": 1603, "aring": 1604, "Ġgames": 1605, "ison": 1606, "Ġhuman": 1607, "Ġbas": 1608, "Ġword": 1609, "ization": 1610, "Ġreturn": 1611, "Ġtimes": 1612, "Ġorder": 1613, "ĠRuss": 1614, "Ġbit": 1615, "ĠDem": 1616, "Ġname": 1617, "11": 1618, "gin": 1619, "Ġsever": 1620, "ĠAll": 1621, "Ġdev": 1622, "icle": 1623, "uture": 1624, "for": 1625, "ither": 1626, "iqu": 1627, "Ġpar": 1628, "Ġ199": 1629, "ĠMc": 1630, "Ġwr": 1631, "ĠCon": 1632, "raft": 1633, "Ġsing": 1634, "Ġperform": 1635, "ĠSy": 1636, "idd": 1637, "Ġmarket": 1638, "Ġfac": 1639, "Ġcharac": 1640, "There": 1641, "ĠOr": 1642, "ĠAt": 1643, "ĠMay": 1644, "Ġra": 1645, "Ġdoing": 1646, "Ġappear": 1647, "ER": 1648, "ched": 1649, "Ġplayers": 1650, "Ġla": 1651, "Ġnight": 1652, "Ġlear": 1653, "aken": 1654, "rop": 1655, "ats": 1656, "mber": 1657, "Ġtoday": 1658, "Ġearly": 1659, "Ġ15": 1660, "Ġseen": 1661, "//": 1662, "Ġhaving": 1663, "Ġ,": 1664, "Ġpot": 1665, "Ġchildren": 1666, "Ġevent": 1667, "Ġmedia": 1668, "Ġsocial": 1669, "Ġcrit": 1670, "ĠPresident": 1671, "Ġwhether": 1672, "Ġseveral": 1673, "Ġcontrol": 1674, "idence": 1675, "Ġmeet": 1676, "sh": 1677, "Ġmilit": 1678, "Ġpress": 1679, "Ġwent": 1680, "artment": 1681, "ene": 1682, "Ġfive": 1683, "Ġyoung": 1684, "ories": 1685, "Ġsure": 1686, "Ġprop": 1687, "iously": 1688, "Ġequ": 1689, "Ġquestion": 1690, "Ġocc": 1691, "Ġlikely": 1692, "vert": 1693, "une": 1694, "Ġmembers": 1695, "br": 1696, "ands": 1697, "Ġcertain": 1698, "ium": 1699, "Ġeng": 1700, "Ġwater": 1701, "ĠYork": 1702, "Ġexample": 1703, "ots": 1704, "ĠCol": 1705, "Ġside": 1706, "Ġant": 1707, "Ġarg": 1708, "Ġdone": 1709, "enn": 1710, "Ġvers": 1711, "Ġinvol": 1712, "ĠMr": 1713, "ĠStates": 1714, "ĠEurope": 1715, "ended": 1716, "let": 1717, "Ġalong": 1718, "Ġshort": 1719, "Ġsuccess": 1720, "ential": 1721, "Ġmonths": 1722, "ball": 1723, "Ġhour": 1724, "Ġ11": 1725, "Ġsex": 1726, "iver": 1727, "ially": 1728, "And": 1729, "lf": 1730, "empt": 1731, "Ġwithin": 1732, "Ġdesc": 1733, "imate": 1734, "Ġcourse": 1735, "Ġfight": 1736, "ster": 1737, "urch": 1738, "ubl": 1739, "Ġamong": 1740, "Ġactiv": 1741, "uff": 1742, "âĢĵ": 1743, "ague": 1744, "Ġonce": 1745, "Ġfuture": 1746, "Ġinvestig": 1747, "ulation": 1748, "rew": 1749, "Ġpossible": 1750, "ĠObama": 1751, "Ġcho": 1752, "nect": 1753, "Ġunderstand": 1754, "iting": 1755, "Ġconcer": 1756, "ĠOn": 1757, "Ġ]": 1758, "ones": 1759, "ortun": 1760, "Ġproblem": 1761, "ĠBr": 1762, "Ġpriv": 1763, "Ġmeans": 1764, "Ġviol": 1765, "ĠCar": 1766, "Ġauthor": 1767, "itive": 1768, "ĠNo": 1769, "ggest": 1770, "Ġavail": 1771, "oci": 1772, "ourn": 1773, "my": 1774, "Ġknown": 1775, "Ġproduct": 1776, "Ġnon": 1777, "ivid": 1778, "Ġthought": 1779, "Ġyet": 1780, "gress": 1781, "Ġacross": 1782, "Ġprotect": 1783, "Ġlocal": 1784, "ald": 1785, "ler": 1786, "Ġhold": 1787, "ĠTe": 1788, "Ġfail": 1789, "ĠWhen": 1790, "ĠState": 1791, "inc": 1792, "Ġcommunity": 1793, "Ġreason": 1794, "Ġorig": 1795, "Ġsuggest": 1796, "Ġ&": 1797, "12": 1798, "Ġmakes": 1799, "verage": 1800, "not": 1801, "por": 1802, "back": 1803, "Ġ2016": 1804, "Ġi": 1805, "book": 1806, "Ġasked": 1807, "ederal": 1808, "orld": 1809, "Ġreported": 1810, "You": 1811, "aged": 1812, "ensive": 1813, "Ġgiven": 1814, "Ġstrong": 1815, "Ġprob": 1816, "Ġmus": 1817, "Ġothers": 1818, "Ġbelieve": 1819, "Ġvideo": 1820, "iber": 1821, "Ġben": 1822, "Ġgetting": 1823, "ĠHouse": 1824, "ances": 1825, "Ġannoun": 1826, "Ġlight": 1827, "ored": 1828, "ober": 1829, "ĠUniversity": 1830, "Ġ30": 1831, "ĠCo": 1832, "itions": 1833, "Ġident": 1834, "iron": 1835, "Ġsent": 1836, "Ġcut": 1837, "Ġlim": 1838, "Ġca": 1839, "ĠChrist": 1840, "iety": 1841, "30": 1842, "urther": 1843, "Ġsour": 1844, "Ġcreat": 1845, "Ġcond": 1846, "ĠX": 1847, "rest": 1848, "ams": 1849, "'ve": 1850, "Ġnet": 1851, "ashing": 1852, "Ġbat": 1853, "ament": 1854, "Ġnational": 1855, ".,": 1856, "Ġclose": 1857, "Ġstarted": 1858, "Ġsaf": 1859, "Ġdeath": 1860, "aster": 1861, "Ġavailable": 1862, "arm": 1863, "Ġhig": 1864, "For": 1865, "Ġbased": 1866, "Ġissue": 1867, "of": 1868, "Ġindust": 1869, "ĠDemocrat": 1870, "ĠMin": 1871, "Ġlow": 1872, "Ġfollowing": 1873, "resent": 1874, "Ġaccount": 1875, "Ġland": 1876, "use": 1877, "ĠCent": 1878, "Ġemploy": 1879, "Ġlove": 1880, "Ġ2015": 1881, "Ġ#": 1882, "Ġhistory": 1883, "Ġago": 1884, "orts": 1885, "selves": 1886, "Ġmom": 1887, "Ġparty": 1888, "ability": 1889, "Ġseries": 1890, "eb": 1891, "Ġcomes": 1892, "Ġtrying": 1893, "uly": 1894, "utes": 1895, "ĠAm": 1896, "Ġalmost": 1897, "gether": 1898, "ument": 1899, "Ġtogether": 1900, "ination": 1901, "AT": 1902, "ĠAmerica": 1903, "pro": 1904, "Ġidea": 1905, "ief": 1906, "Ġaccess": 1907, "Ġfoc": 1908, "hers": 1909, "ilar": 1910, "ĠFl": 1911, "reed": 1912, "ails": 1913, "Ġcommit": 1914, "itional": 1915, "Ġisn": 1916, "ĠSen": 1917, "Ġclear": 1918, "Ġ16": 1919, "ĠOne": 1920, "Ġtrad": 1921, "though": 1922, "ring": 1923, "ĠWhat": 1924, "Ġpract": 1925, "Ġadded": 1926, "Ġimpro": 1927, "Ġexperience": 1928, "erence": 1929, "Ġfilm": 1930, "15": 1931, "Ġhalf": 1932, "ustom": 1933, "ged": 1934, "Ġhit": 1935, "af": 1936, "ĠBro": 1937, "witter": 1938, "rict": 1939, "Ġanal": 1940, "inton": 1941, "ograp": 1942, "unch": 1943, "Ġ2014": 1944, "Ġrul": 1945, "ividual": 1946, "Ġlooking": 1947, "Ġsix": 1948, "Ġlive": 1949, "Ġanything": 1950, "Ġarea": 1951, "Ġcomplete": 1952, "erman": 1953, "minist": 1954, "Ġmiss": 1955, "rael": 1956, "ĠEx": 1957, "ĠComm": 1958, "Ġfav": 1959, "Ġris": 1960, "ai": 1961, "nes": 1962, "Ġpresent": 1963, "ote": 1964, "rug": 1965, "Ġsaying": 1966, "raw": 1967, "aid": 1968, "ĠCanad": 1969, "Ġvict": 1970, "IN": 1971, "cially": 1972, "Ġbad": 1973, "ows": 1974, "uge": 1975, "Ġtaken": 1976, "ert": 1977, "Ġentire": 1978, "oto": 1979, "ĠPr": 1980, "ators": 1981, "ev": 1982, "Ġbill": 1983, "Ġcompet": 1984, "ĠEng": 1985, "Ġmor": 1986, "Ġbehind": 1987, "ien": 1988, "Ġaut": 1989, "ĠTo": 1990, "'m": 1991, "Ġcourt": 1992, "play": 1993, "Ġtry": 1994, "Ġtre": 1995, "Ġmilitary": 1996, "Ġz": 1997, "Ġnear": 1998, "osp": 1999, "Ġmult": 2000, "What": 2001, "Ġface": 2002, "wards": 2003, "Ġ14": 2004, "Ġsecurity": 2005, "Ġer": 2006, "ĠPol": 2007, "sy": 2008, "Ġproper": 2009, "Ġdiscuss": 2010, "Ġthreat": 2011, "Ġtot": 2012, "Ġstudy": 2013, "Ġsingle": 2014, "Ġrather": 2015, "Ġindividual": 2016, "ĠAf": 2017, "ĠBrit": 2018, "ĠWar": 2019, "ĠÂ": 2020, "ttp": 2021, "Ġquick": 2022, "ĠDon": 2023, "Ġmind": 2024, "ĠSec": 2025, "lement": 2026, "ales": 2027, "amed": 2028, "atic": 2029, "An": 2030, "ĠNorth": 2031, "aper": 2032, "Ġpubl": 2033, "Ġpolicy": 2034, "Ġmess": 2035, "ris": 2036, "par": 2037, "Ġblack": 2038, "Ġwanted": 2039, "Ġfall": 2040, "irc": 2041, "**": 2042, "off": 2043, "Ġfood": 2044, "Ġsum": 2045, "Ġsomeone": 2046, "lling": 2047, "ids": 2048, "On": 2049, "Ġ|": 2050, "Ġ/": 2051, "Ġcult": 2052, "Ġspecial": 2053, "Ġcomb": 2054, "Ġkey": 2055, "ĠMan": 2056, "Ġplayer": 2057, "Ġredu": 2058, "ĠGr": 2059, "Ġbring": 2060, "Ġ13": 2061, "Ġcompan": 2062, "Ġ17": 2063, "ply": 2064, "ĠDep": 2065, "Ġattempt": 2066, "ĠNational": 2067, "Ġtaking": 2068, "ĠBar": 2069, "When": 2070, "ON": 2071, "ify": 2072, "olution": 2073, "Ġ:": 2074, "viron": 2075, "Ġfoot": 2076, "ĠCal": 2077, "://": 2078, "Ġelse": 2079, "Ġpret": 2080, "Ġbody": 2081, "Ġspace": 2082, "elt": 2083, "rote": 2084, "over": 2085, "dd": 2086, "Ġprobably": 2087, "16": 2088, "icult": 2089, ".)": 2090, "Ġfront": 2091, "Ġcou": 2092, "Ġnothing": 2093, "Ġsw": 2094, "ashington": 2095, "ĠIm": 2096, "Ġconnect": 2097, "ches": 2098, "ĠWorld": 2099, "Ġresearch": 2100, "14": 2101, "ming": 2102, "ĠClinton": 2103, "ĠCity": 2104, "Ġcoming": 2105, "Ġpoints": 2106, "ĠIsrael": 2107, "RE": 2108, "Ġhowever": 2109, "Ġdescrib": 2110, "go": 2111, "Ġjo": 2112, "Ġsignific": 2113, "Ġsimilar": 2114, "yn": 2115, "reme": 2116, "cing": 2117, "Ġbenef": 2118, "lier": 2119, "ĠAust": 2120, "Ġdecision": 2121, "Ġeither": 2122, "aces": 2123, "Ġcoun": 2124, "ault": 2125, "So": 2126, "Ġmass": 2127, "mb": 2128, "ĠHar": 2129, "Ġsus": 2130, "Ġtarg": 2131, "ully": 2132, "ana": 2133, "Ġfeat": 2134, "That": 2135, "Ġimm": 2136, "Ġconv": 2137, "Ġexist": 2138, "irl": 2139, "Ġenc": 2140, "Ġ2013": 2141, "Ġrights": 2142, "Ġservice": 2143, "ĠSu": 2144, "asing": 2145, "ung": 2146, "sw": 2147, "IS": 2148, "Ġfire": 2149, "Ġdoc": 2150, "Ġwrote": 2151, "Ġfurther": 2152, "Ġhouse": 2153, "rodu": 2154, "Ġfig": 2155, "Ġchall": 2156, "ww": 2157, "Ġban": 2158, "Ġthird": 2159, "Ġwa": 2160, "Ġcreate": 2161, "Ġstop": 2162, "Ġfield": 2163, "now": 2164, "Ġpick": 2165, "AN": 2166, "ape": 2167, "ively": 2168, "Ġmeas": 2169, "Ġrepl": 2170, "Ġcompl": 2171, "ĠWith": 2172, "Ġissues": 2173, "pping": 2174, "Ġbegin": 2175, "Ġsuper": 2176, "amer": 2177, "Ġstep": 2178, "ried": 2179, "ently": 2180, "Ġwhole": 2181, "Ġrelations": 2182, "Ġseems": 2183, "Ġ)": 2184, "Ġcompanies": 2185, "pecially": 2186, "Ġdue": 2187, "Ġexec": 2188, "Ġcand": 2189, "Ġeverything": 2190, "Ġfederal": 2191, "ĠGu": 2192, "Ġstates": 2193, "Ġey": 2194, "Ġroom": 2195, "aul": 2196, "Ġtra": 2197, "Ġwatch": 2198, "oon": 2199, "ĠGe": 2200, "Ġcustom": 2201, "Ġleaders": 2202, "13": 2203, "uation": 2204, "ĠHowever": 2205, "pite": 2206, "ĠJan": 2207, "ĠWashington": 2208, "Ch": 2209, "lam": 2210, "Ġself": 2211, "Ġrole": 2212, "ran": 2213, "ilt": 2214, "Ġsound": 2215, "Ġlab": 2216, "att": 2217, "head": 2218, "Ġdam": 2219, "ivil": 2220, "Ġofficials": 2221, "Ġstri": 2222, "Ġ2012": 2223, "lu": 2224, "iday": 2225, "ibility": 2226, "Ġreleased": 2227, "ĠInst": 2228, "eal": 2229, "Ġbegan": 2230, "ĠDav": 2231, "ĠApp": 2232, "ĠSouth": 2233, "Ġopt": 2234, "obal": 2235, "Ġstudents": 2236, "Ġtreat": 2237, "Ġfinal": 2238, "Ġcharacter": 2239, "Ġposition": 2240, "Ġmatter": 2241, "Ã©": 2242, "ender": 2243, "Ġener": 2244, "lim": 2245, "Ġoutside": 2246, "ery": 2247, "sec": 2248, "ades": 2249, "Ġdou": 2250, "vironment": 2251, "Ġdevelopment": 2252, "Ġstatement": 2253, "Ġhimself": 2254, "Ġ2017": 2255, "Ġabove": 2256, "like": 2257, "Ġstat": 2258, "Ġinit": 2259, "Ġbreak": 2260, "Ġ100": 2261, "Ġamount": 2262, "Ġprovide": 2263, "Ġhours": 2264, "Ġitself": 2265, "Ġthemselves": 2266, "Ġoffice": 2267, "Ġrepresent": 2268, "Ġaction": 2269, "ĠPart": 2270, "Ġdi": 2271, "Ġbecame": 2272, "Ġ198": 2273, "Ġgeneral": 2274, "Ġcontinue": 2275, "Ġcountries": 2276, "ĠIntern": 2277, "Ġneg": 2278, "iod": 2279, "Ġaddress": 2280, "Ġ25": 2281, "Ġgun": 2282, "aced": 2283, "ask": 2284, "Ġtrue": 2285, "Ġspecific": 2286, "ograph": 2287, "umb": 2288, "arter": 2289, "reg": 2290, "Ġlarg": 2291, "Ġsignificant": 2292, "lish": 2293, "Ġsimply": 2294, "ĠAss": 2295, "ĠRes": 2296, "Ġwasn": 2297, "'ll": 2298, "Ġinterview": 2299, "acebook": 2300, "ili": 2301, "Ġground": 2302, "Ġrad": 2303, "oid": 2304, "ogn": 2305, "Ġdifficult": 2306, "Ġrunning": 2307, "ĠJust": 2308, "Ġevidence": 2309, "Ġadminist": 2310, "BC": 2311, "Ġcop": 2312, "17": 2313, "ream": 2314, "Ġdrug": 2315, "Ġversion": 2316, "ogle": 2317, "Ġbar": 2318, "ĠEd": 2319, "Ġagree": 2320, "eks": 2321, "iddle": 2322, "Ġbuilding": 2323, "ĠChina": 2324, "Ġneeds": 2325, "Ġprofess": 2326, "angu": 2327, "Ġgroups": 2328, "right": 2329, "Ġtyp": 2330, "Ġrespons": 2331, "Ġcommon": 2332, "Ġshows": 2333, "Ġeveryone": 2334, "Ġdom": 2335, "Ġdest": 2336, "Ġneeded": 2337, "Ġball": 2338, "Ġwoman": 2339, "ĠGerman": 2340, "Ġlat": 2341, "Ġbelow": 2342, "Ġtem": 2343, "light": 2344, "ournal": 2345, "Ġmusic": 2346, "Ġexc": 2347, "Ġrelease": 2348, "ift": 2349, "Ġinj": 2350, "Ġpretty": 2351, "ĠMed": 2352, "ĠAb": 2353, "AR": 2354, "ribut": 2355, "Ġinclude": 2356, "Ġsaw": 2357, "Ġdeep": 2358, "Ġap": 2359, "body": 2360, "18": 2361, "Ġplayed": 2362, "Ġquite": 2363, "Ġindustry": 2364, "Ġcharg": 2365, "Ġmag": 2366, "Ġenergy": 2367, "Ġplaying": 2368, "Ġmot": 2369, "Ġ50": 2370, "Ġcandid": 2371, "Ġsense": 2372, "Ġphys": 2373, "Ġlate": 2374, "Ġalleg": 2375, "Ġwhite": 2376, "ĠHis": 2377, "ival": 2378, "Ġfriends": 2379, "Ġgen": 2380, "Ġlegal": 2381, "atur": 2382, "Ġanim": 2383, "isc": 2384, "bo": 2385, "yle": 2386, "ĠAfter": 2387, "How": 2388, "AS": 2389, "where": 2390, "Ġabs": 2391, "lev": 2392, "Ġinstead": 2393, "Ġred": 2394, "Ġbillion": 2395, "Ġlost": 2396, "Ġespecially": 2397, "Ġvalue": 2398, "ĠMus": 2399, "ĠWest": 2400, "Ġhost": 2401, "Ġhom": 2402, "osing": 2403, "oring": 2404, "ĠNews": 2405, "time": 2406, "ager": 2407, "Ġple": 2408, "istic": 2409, "Ġweeks": 2410, "epend": 2411, "ĠNot": 2412, "ccording": 2413, "omm": 2414, "Ġforward": 2415, "ique": 2416, "Ġdeter": 2417, "Ġelection": 2418, "Ġrecently": 2419, "Ġjud": 2420, "Ġtrack": 2421, "Ġsuff": 2422, "Ġvote": 2423, "ĠTwitter": 2424, "Ġobject": 2425, "irt": 2426, "lt": 2427, "medi": 2428, "Ġperiod": 2429, "Ġchanges": 2430, "Ġopportun": 2431, "ĠWhite": 2432, "ĠOct": 2433, "Ġlo": 2434, "Ġlonger": 2435, "arc": 2436, "oke": 2437, "eed": 2438, "Ġep": 2439, "Ġpain": 2440, "Ġsoon": 2441, "Ġsite": 2442, "Ġ{": 2443, "hod": 2444, "ript": 2445, "ached": 2446, "Ġaccept": 2447, "ĠCong": 2448, "____": 2449, "Ġshoot": 2450, "Ġeconomic": 2451, "Ġhope": 2452, "irm": 2453, "oe": 2454, "Ġmoment": 2455, "Ġdecl": 2456, "lege": 2457, "Ġconsum": 2458, "ĠWill": 2459, "Ġpie": 2460, "Ġtit": 2461, "Ġcheck": 2462, "oph": 2463, "Ġpotential": 2464, "ij": 2465, "Ġblock": 2466, "ĠMarch": 2467, "ole": 2468, "Ġwrong": 2469, "duct": 2470, "ners": 2471, "ĠSept": 2472, "ĠDepartment": 2473, "Ġhigher": 2474, "onse": 2475, "Ġcred": 2476, "Ġonline": 2477, "Ġfocus": 2478, "Ġ24": 2479, "Ġconsider": 2480, "key": 2481, "Ġeduc": 2482, "ancial": 2483, "ĠMy": 2484, "ns": 2485, "iding": 2486, "Ġcirc": 2487, "Ġworks": 2488, "Ġrelig": 2489, "Ġshare": 2490, "Ġparent": 2491, "cial": 2492, "Ġheld": 2493, "25": 2494, "Ġpred": 2495, "ĠDr": 2496, "Ġwalk": 2497, "Ġwebs": 2498, "Ġled": 2499, "ularly": 2500, "==": 2501, "Ġreve": 2502, "Ġstay": 2503, "lear": 2504, "ĠThese": 2505, "overed": 2506, "alt": 2507, "Ġstru": 2508, "ĠRepublican": 2509, "Ġrisk": 2510, "Ġwords": 2511, "ĠAug": 2512, "Ġrev": 2513, "Ġsold": 2514, "Ġreview": 2515, "icro": 2516, "Ġcontract": 2517, "Ġresults": 2518, "Ġservices": 2519, "Ġlaws": 2520, "They": 2521, "Ġcode": 2522, "cil": 2523, "ĠMich": 2524, "Ġwind": 2525, "Ġfunction": 2526, "Ġaud": 2527, "Ġce": 2528, "ĠSyri": 2529, "put": 2530, "aut": 2531, "Ġtotal": 2532, "fect": 2533, "Ġarticle": 2534, "Ġage": 2535, "Ġapplic": 2536, "Ġminutes": 2537, "urd": 2538, "ĠMe": 2539, "Ġpersonal": 2540, "ilities": 2541, "Ġanyone": 2542, "uary": 2543, "ients": 2544, "itution": 2545, "asons": 2546, "ĠJune": 2547, "Ad": 2548, "ateg": 2549, "Ġprim": 2550, "anger": 2551, "Ġtarget": 2552, "ĠSte": 2553, "fer": 2554, "Ġden": 2555, "Ġearlier": 2556, "ule": 2557, "Ġfavor": 2558, "Ġexpress": 2559, "haps": 2560, "Ġdead": 2561, "Ġansw": 2562, "Ġupd": 2563, "Ġpopular": 2564, "che": 2565, "Ġcomput": 2566, "Ġvol": 2567, "pril": 2568, "Ġnecess": 2569, "ham": 2570, "Ġhy": 2571, "Ġrate": 2572, "ES": 2573, "aging": 2574, "Ġtechnology": 2575, "apan": 2576, "Ġrespect": 2577, "ĠPe": 2578, "val": 2579, "Ġenvironment": 2580, "Ġ2011": 2581, "Ph": 2582, "Ġreceived": 2583, "Ġexpected": 2584, "ude": 2585, "ends": 2586, "Ġgoal": 2587, "ĠPar": 2588, "Ġcreated": 2589, "Ġbase": 2590, "Ġsurpr": 2591, "Ġanti": 2592, "ĠSm": 2593, "ĠJuly": 2594, "eter": 2595, "tee": 2596, "Ġproblems": 2597, "uel": 2598, "Ġways": 2599, "Ġport": 2600, "iple": 2601, "action": 2602, "Ġprivate": 2603, "ĠDo": 2604, "Ġscient": 2605, "Ġincrease": 2606, "ray": 2607, "reet": 2608, "Ġannounced": 2609, "Ġcomment": 2610, "isl": 2611, "Ġcannot": 2612, "Ġeasy": 2613, "Al": 2614, "Ġshot": 2615, "ĠCongress": 2616, "Ġquestions": 2617, "bit": 2618, "Ġforce": 2619, "aterial": 2620, "hern": 2621, "Ġimpact": 2622, "na": 2623, "Ġet": 2624, "ĠMond": 2625, "ples": 2626, "Ġpack": 2627, "Ġ+": 2628, "ĠFacebook": 2629, "Ġpur": 2630, "Ġlangu": 2631, "atives": 2632, "ĠGod": 2633, "ĠEn": 2634, "Ġinvolved": 2635, "omb": 2636, "aving": 2637, "ills": 2638, "60": 2639, "lex": 2640, "hood": 2641, "onst": 2642, "ĠAustral": 2643, "Ġdiv": 2644, "uesday": 2645, "Ġexecut": 2646, "ctor": 2647, "Ġmodel": 2648, "itiz": 2649, "Ġsen": 2650, "Ġspeak": 2651, "Ġstaff": 2652, "Ġexact": 2653, "Ġcivil": 2654, "ires": 2655, "Ġnearly": 2656, "Ġtype": 2657, "ourt": 2658, "okes": 2659, "ees": 2660, "Ġoriginal": 2661, "Ġcases": 2662, "Ġcontent": 2663, "Ġ197": 2664, "Ġrelationship": 2665, "Ġterror": 2666, "ĠGoogle": 2667, "To": 2668, "Ġleave": 2669, "ĠFriday": 2670, "Ġresponse": 2671, "Ġcapt": 2672, "Ġinside": 2673, "Ġ<": 2674, "Ġphot": 2675, "lled": 2676, "ech": 2677, "Ġfans": 2678, "ĠApril": 2679, "rem": 2680, "ĠRed": 2681, "Ġinternational": 2682, "Ġcoll": 2683, "cast": 2684, "Ġheart": 2685, "Ġaverage": 2686, "Ġbroad": 2687, "Ġarrest": 2688, "Ġusers": 2689, "ĠCount": 2690, "Ġcal": 2691, "At": 2692, "rel": 2693, "Ġcell": 2694, "Ġworth": 2695, "Ġsoft": 2696, "Ġur": 2697, "Ġliving": 2698, "ĠEm": 2699, "bor": 2700, "Ġnation": 2701, "ips": 2702, "ky": 2703, "Ġkilled": 2704, "Ġreports": 2705, "Ġ2010": 2706, "ãģ": 2707, "ging": 2708, "Ġbecom": 2709, "Ġsource": 2710, "ĠMonday": 2711, "ĠTuesday": 2712, "Ġsubject": 2713, "Ġworked": 2714, "atural": 2715, "ests": 2716, "Ġestab": 2717, "Ġimmedi": 2718, "EN": 2719, "Ġrespond": 2720, "Ġglobal": 2721, "Ġassoci": 2722, "joy": 2723, "ellig": 2724, "Ġclub": 2725, "ops": 2726, "ĠAmericans": 2727, "ael": 2728, "Ġobs": 2729, "ites": 2730, "ĠPer": 2731, "ĠPal": 2732, "Ġchance": 2733, "Ġoil": 2734, "ĠAct": 2735, "Ġability": 2736, "ĠNe": 2737, "Ġtakes": 2738, "rought": 2739, "Ġweap": 2740, "hel": 2741, "Ġprice": 2742, "ĠJapan": 2743, "ological": 2744, "Ġdirector": 2745, "izing": 2746, "Ġworkers": 2747, "Ġterms": 2748, "Ġroad": 2749, "mon": 2750, "Ġpublished": 2751, "Ġdel": 2752, "ĠWhile": 2753, "Ġtou": 2754, "Ġphone": 2755, "rain": 2756, "Ġcollect": 2757, "Ġfinancial": 2758, "Ġmid": 2759, "osition": 2760, "Ġdecided": 2761, "ises": 2762, "OR": 2763, "ĠRussia": 2764, "ĠSome": 2765, "ĠWed": 2766, "Ġmother": 2767, "Ġsqu": 2768, "Ġlack": 2769, "Ġdefin": 2770, "ovember": 2771, "Ġ40": 2772, "Ġgirl": 2773, "Ġstore": 2774, "Ġgave": 2775, "Ġbuy": 2776, "Ġinflu": 2777, "ĠCalif": 2778, "Ġlog": 2779, "Ġhappened": 2780, "ino": 2781, "Ġrequire": 2782, "ĠNow": 2783, "Ġemer": 2784, "Ġfem": 2785, "\".": 2786, "Ġcapital": 2787, "clus": 2788, "Ġforeign": 2789, "Ġcurrently": 2790, "ĠOff": 2791, "based": 2792, "ĠSan": 2793, "Ġgoes": 2794, "ĠBy": 2795, "oved": 2796, "ĠGeor": 2797, "vertise": 2798, "Ġsituation": 2799, "Ġindic": 2800, "Ġoffer": 2801, "Ġwhose": 2802, "Ġ@": 2803, "Ġtal": 2804, "Ġmaterial": 2805, "Ġlives": 2806, "unt": 2807, "Ġaffect": 2808, "rown": 2809, "ought": 2810, "Ġplans": 2811, "nesday": 2812, "Ġarri": 2813, "Ġmember": 2814, "Ġpict": 2815, "ursday": 2816, "ĠFeb": 2817, "Ġparticip": 2818, "ruction": 2819, "Ġrecogn": 2820, "Ġturned": 2821, "Ġmethod": 2822, "Ġevents": 2823, "ĠJanuary": 2824, "ĠHill": 2825, "Ġnetwork": 2826, "One": 2827, "Ġteams": 2828, "ĠSund": 2829, "Ġbank": 2830, "Ġmeeting": 2831, "40": 2832, "rect": 2833, "Ġnorm": 2834, "Ġintrodu": 2835, "Ġsimple": 2836, "fully": 2837, "ĠIslam": 2838, "Ġill": 2839, "ĠAg": 2840, "Ġhuge": 2841, "ĠSeptember": 2842, "oud": 2843, "Ġregard": 2844, "Ġareas": 2845, "Ġcy": 2846, "order": 2847, "ĠCor": 2848, "ese": 2849, "ĠTV": 2850, "Ġcouple": 2851, "Ġapproach": 2852, "Ġcareer": 2853, "aur": 2854, "ĠAfric": 2855, "ĠGl": 2856, "load": 2857, "\",": 2858, "Ġdeli": 2859, "Ġrace": 2860, "lin": 2861, "Ġperformance": 2862, "Ġpage": 2863, "ety": 2864, "apt": 2865, "ĠNovember": 2866, "Ġtool": 2867, "ĠDavid": 2868, "Ġfelt": 2869, "Ġquickly": 2870, "Ġmis": 2871, "Ġnumbers": 2872, "oor": 2873, "Ġemail": 2874, "Ġ21": 2875, "aily": 2876, "Ġord": 2877, "ĠEl": 2878, "istan": 2879, "Ġadministration": 2880, "Ġhon": 2881, "ĠWednesday": 2882, "Ġvictim": 2883, "ĠPaul": 2884, "Ġvia": 2885, "Ġimprove": 2886, "Ġengine": 2887, "chie": 2888, "--------": 2889, "Ġfre": 2890, "Ġpull": 2891, "ĠAng": 2892, "Ġround": 2893, "bl": 2894, "Ġbuilt": 2895, "Ġ22": 2896, "Ġpers": 2897, "ĠEuropean": 2898, "Ġdig": 2899, "ened": 2900, "ĠThursday": 2901, "Ġfather": 2902, "ornia": 2903, "Ġloss": 2904, "avy": 2905, "Ġthous": 2906, "ÂŃ": 2907, "Ġhttp": 2908, "ructure": 2909, "Ġproduction": 2910, "Ġboy": 2911, "ume": 2912, "Ġheard": 2913, "down": 2914, "Sh": 2915, "Ġeconomy": 2916, "âĢĿ.": 2917, "Ġenjoy": 2918, "ĠAugust": 2919, "Ġtrade": 2920, "ĠSch": 2921, "face": 2922, "Ġwebsite": 2923, "iment": 2924, "Ġsecret": 2925, "Ġcover": 2926, "Ġreveal": 2927, "Ġwide": 2928, "Ġboard": 2929, "Ġmatch": 2930, "ĠCourt": 2931, "AL": 2932, "Ġallowed": 2933, "Ġhands": 2934, "Ġspent": 2935, "Ġtravel": 2936, "Ġlower": 2937, "Ġrepe": 2938, "atory": 2939, "Ġpoll": 2940, "Ġste": 2941, "Ġincluded": 2942, "cember": 2943, "ĠOctober": 2944, "Ġneigh": 2945, "Ġlegisl": 2946, "orters": 2947, "uses": 2948, "Ġbehav": 2949, "iction": 2950, "Ġknew": 2951, "Ġtext": 2952, "Ġwants": 2953, "Ġtown": 2954, "ights": 2955, "ĠBritish": 2956, "Ġsepar": 2957, "ences": 2958, "estern": 2959, "Ġvisit": 2960, "ĠCanada": 2961, "anks": 2962, "ctions": 2963, "With": 2964, "Ġperfect": 2965, "Ġgets": 2966, "ze": 2967, "ession": 2968, "Ġmovement": 2969, "ishing": 2970, "ground": 2971, "agement": 2972, "Ġtried": 2973, "Ġcause": 2974, "?âĢĿ": 2975, "gest": 2976, "Ġ}": 2977, "Ġforces": 2978, "ĠSunday": 2979, "Ġens": 2980, "After": 2981, "force": 2982, "ceed": 2983, "Ġattention": 2984, "Ġparticular": 2985, "Ġbi": 2986, "][": 2987, "ening": 2988, "Ġveh": 2989, "Ġbud": 2990, "Ġfear": 2991, "Ġpopulation": 2992, "Ġvarious": 2993, "ĠUK": 2994, "Ġreach": 2995, "ma": 2996, "Ġlooks": 2997, "Ġ23": 2998, "ĠCalifornia": 2999, "Ġbrought": 3000, "Ġvo": 3001, "ĠKore": 3002, "Ġlink": 3003, "ibly": 3004, ");": 3005, "urning": 3006, "arily": 3007, "ĠIS": 3008, "200": 3009, "Ġprevious": 3010, "ED": 3011, "Ġmention": 3012, "ĠRussian": 3013, "Ġmorning": 3014, "ĠQu": 3015, "cle": 3016, "idered": 3017, "eg": 3018, "'d": 3019, "Ġfair": 3020, "Ġgrowth": 3021, "aker": 3022, "ĠSw": 3023, "undred": 3024, "99": 3025, "sequ": 3026, "yond": 3027, "Ġprogress": 3028, "Ġfell": 3029, "raz": 3030, "alled": 3031, "Ġsong": 3032, "iam": 3033, "ĠCont": 3034, "AC": 3035, "Ġtraining": 3036, "field": 3037, "hold": 3038, "uk": 3039, "Ġsize": 3040, "ĠBlack": 3041, "cies": 3042, "ĠDecember": 3043, "idents": 3044, "Ġcontact": 3045, "ledge": 3046, "ĠHer": 3047, "Ġdemand": 3048, "While": 3049, "Ġimage": 3050, "Ġhor": 3051, "Ġrac": 3052, "Ġhot": 3053, "ification": 3054, "OS": 3055, "Ġleader": 3056, "set": 3057, "ecause": 3058, "Ġrules": 3059, "Ġprep": 3060, "Ġliber": 3061, "Ġsearch": 3062, "Ġess": 3063, "ĠPost": 3064, "Ġcitiz": 3065, "Ġupon": 3066, "Ġstrugg": 3067, "ĠStreet": 3068, "Ġlatest": 3069, "come": 3070, "Ġindepend": 3071, "US": 3072, "uments": 3073, "inks": 3074, "arth": 3075, "Ġfeatures": 3076, "Ġcoach": 3077, "ondon": 3078, "ĠPark": 3079, "iant": 3080, "Ġfast": 3081, "Tr": 3082, "oo": 3083, "sych": 3084, "Ġtalking": 3085, "ĠJew": 3086, "omp": 3087, "Ġaddition": 3088, "ges": 3089, "Ġstar": 3090, "Ġwond": 3091, "ĠSenate": 3092, "IT": 3093, "ĠPat": 3094, "Ġspeed": 3095, "Ġexam": 3096, "Ġconsidered": 3097, "raq": 3098, "icles": 3099, "aries": 3100, "Ġreb": 3101, "bed": 3102, "Ġlevels": 3103, "eth": 3104, "ĠTimes": 3105, "ĠCounty": 3106, "elligence": 3107, "Ġslow": 3108, "Ġinvestigation": 3109, "ps": 3110, "ille": 3111, "Ġconduct": 3112, "aph": 3113, "ĠParty": 3114, "22": 3115, "ĠKing": 3116, "Ġmedical": 3117, "Ġmach": 3118, "imately": 3119, "vent": 3120, "Ġachie": 3121, "Ġlanguage": 3122, "aturday": 3123, "Ġcard": 3124, "Ġsn": 3125, "unk": 3126, "Ġsort": 3127, "Ġcritic": 3128, "ope": 3129, "ĠTex": 3130, "ĠCenter": 3131, "Ġpen": 3132, "Ġund": 3133, "wo": 3134, "ĠIndia": 3135, "Ġpaper": 3136, "ysis": 3137, "IC": 3138, "Ġ2008": 3139, "pir": 3140, "Ġconserv": 3141, "Ġparents": 3142, "imin": 3143, "Ġsexual": 3144, "Ġsystems": 3145, "Ġprior": 3146, "ha": 3147, "uit": 3148, "asc": 3149, "Ġdoll": 3150, "Ġwritten": 3151, "uf": 3152, "Ġbox": 3153, "Ġspokes": 3154, "igr": 3155, "Ġseek": 3156, "Ġsens": 3157, "het": 3158, "Ġdocument": 3159, "idge": 3160, "eared": 3161, "Ġincreasing": 3162, "Ġhear": 3163, "ani": 3164, "atform": 3165, "Ġdraw": 3166, "Ġseven": 3167, "Ġson": 3168, "ĠMuslim": 3169, "Ġeffort": 3170, "ruary": 3171, "Ġjobs": 3172, "ĠIran": 3173, "Ġextreme": 3174, "Ġprevent": 3175, "Ġlearn": 3176, "ining": 3177, "Ġserious": 3178, "Ġregul": 3179, "rast": 3180, "Ġinn": 3181, "Ġrange": 3182, "Ġ...": 3183, "room": 3184, "Ġviolence": 3185, "Ġeight": 3186, "ĠMark": 3187, "80": 3188, "ources": 3189, "ĠIraq": 3190, "itch": 3191, "OP": 3192, "Ġsurve": 3193, "Ġcompletely": 3194, "Ġconc": 3195, "Ġ2009": 3196, "Ġmessage": 3197, "ico": 3198, "tr": 3199, "Ġâ": 3200, "She": 3201, "Ġobv": 3202, "Ġinteresting": 3203, "reedom": 3204, "Ġscreen": 3205, "abor": 3206, "Ġopportunity": 3207, "eff": 3208, "Ġclimate": 3209, "24": 3210, "ext": 3211, "Ġmajority": 3212, "ĠKe": 3213, "anced": 3214, "Ġparticularly": 3215, "Ġdoub": 3216, "Ġjournal": 3217, "ĠRom": 3218, "Ġdespite": 3219, "Ġclaims": 3220, "ĠChar": 3221, "Ġanswer": 3222, "Ġsociety": 3223, "ĠLondon": 3224, "Ġdefense": 3225, "Ġcarry": 3226, "entially": 3227, "aming": 3228, "Ġguy": 3229, "Ġextra": 3230, "ension": 3231, "mp": 3232, "ĠDonald": 3233, "isions": 3234, "Ġattacks": 3235, "Ġrequired": 3236, "erve": 3237, "rench": 3238, "illed": 3239, "Ġbiggest": 3240, "vertisement": 3241, "ĠEast": 3242, "Ġexactly": 3243, "iers": 3244, "Ġpaid": 3245, "ĠMore": 3246, "ibr": 3247, "Ġexperien": 3248, "Ġaren": 3249, "lying": 3250, "uclear": 3251, "inese": 3252, "Ġmodern": 3253, "Ġremain": 3254, "Ġquarter": 3255, "Ġofficers": 3256, "ett": 3257, "Ġhundred": 3258, "Ġcross": 3259, "Ġexcept": 3260, "utions": 3261, "ari": 3262, "Ġtable": 3263, "Ġpractice": 3264, "Ġnatural": 3265, "inally": 3266, "Ġmiddle": 3267, "erc": 3268, "Ġ27": 3269, "Ġcertainly": 3270, "Ġdro": 3271, "add": 3272, "oses": 3273, "ĠSaturday": 3274, "Ġstories": 3275, "ĠNet": 3276, "Ġhistor": 3277, "Ġgas": 3278, "Ġproducts": 3279, "Ġsurv": 3280, "Ġlooked": 3281, "Ġsometimes": 3282, "nces": 3283, "Ġstuff": 3284, "Ġrout": 3285, "Ġscience": 3286, "Ġfinally": 3287, "Ġuser": 3288, "AM": 3289, "Ġsummer": 3290, "Ġmovie": 3291, "Ġblood": 3292, "ospital": 3293, "aves": 3294, "Ġcommunic": 3295, "Ġaw": 3296, "ously": 3297, "Ġlay": 3298, "Ġchanged": 3299, "Ġones": 3300, "Ġleading": 3301, "Ġdescribed": 3302, "ĠSand": 3303, "Ġimag": 3304, "Ġterm": 3305, "ĠFebruary": 3306, "fl": 3307, "Ġprison": 3308, "Ġconvers": 3309, "ny": 3310, "Ġdetails": 3311, "icks": 3312, "Ġstarting": 3313, "ĠSpe": 3314, "Ġquality": 3315, "Ġoccur": 3316, "Ġpan": 3317, "hib": 3318, "Ġshowed": 3319, "Ġnamed": 3320, "Ġgiving": 3321, "Ġult": 3322, "Ġremains": 3323, "ĠMcC": 3324, "uing": 3325, "Ġregion": 3326, "pper": 3327, "Ġprovided": 3328, "Ġcosts": 3329, "akers": 3330, "ĠSoc": 3331, "arr": 3332, "Ġdamage": 3333, "Ġmob": 3334, "Ġdanger": 3335, "Ġfit": 3336, "aught": 3337, "ĠTH": 3338, "ĠTur": 3339, "Ġchief": 3340, "Ġpoor": 3341, "Ġpath": 3342, "ĠMor": 3343, "ida": 3344, "Ġeducation": 3345, "Ġmultiple": 3346, "Ġcontinued": 3347, "enge": 3348, "ĠInt": 3349, "Ġgrowing": 3350, "No": 3351, "Ġdemonst": 3352, "ĠChe": 3353, "Ġ*": 3354, "Ġparts": 3355, "yl": 3356, "Ġ26": 3357, "Ġwriting": 3358, "Ġcomments": 3359, "Ġ28": 3360, "Ġment": 3361, "Ġmaintain": 3362, "Ġsafe": 3363, "Ġassist": 3364, "Ġthinking": 3365, "ĠDes": 3366, "inary": 3367, "ĠRepublicans": 3368, "ĠEven": 3369, "Ġpurp": 3370, "Ġrequest": 3371, "Ġwrite": 3372, "Ġfix": 3373, "Ġitem": 3374, "Ġpurch": 3375, "ables": 3376, "Ġdied": 3377, "ĠDemocratic": 3378, "ĠCoun": 3379, "FL": 3380, "ago": 3381, "Ġready": 3382, "coin": 3383, "Ġwouldn": 3384, "Ġimplement": 3385, "23": 3386, "Ġincreased": 3387, "Ġculture": 3388, "fort": 3389, "Ġefforts": 3390, "Ġvoters": 3391, "ux": 3392, "pre": 3393, "Ġcamer": 3394, "Ġmill": 3395, "aly": 3396, "....": 3397, "oper": 3398, "Ġreading": 3399, "mitted": 3400, "iminal": 3401, "Ġfile": 3402, "Ġusually": 3403, "Ġcalls": 3404, "Ġspot": 3405, "Ġeffects": 3406, "Im": 3407, "ĠGener": 3408, "zz": 3409, "Ġperhaps": 3410, "ban": 3411, "Ġalone": 3412, "arian": 3413, "iles": 3414, "ĠFirst": 3415, "Ġalthough": 3416, "Ġtowards": 3417, "ĠLeague": 3418, "de": 3419, "Ġconsist": 3420, "ĠBill": 3421, "ĠTexas": 3422, "Ġselect": 3423, "Ġguys": 3424, "Ġstandard": 3425, "ĠMichael": 3426, "Ġsubst": 3427, "Ġcele": 3428, "Ġbeyond": 3429, "Ġdirectly": 3430, "Ġplatform": 3431, "ĠChinese": 3432, "Ġ(@": 3433, "Ġhous": 3434, "using": 3435, "itute": 3436, "Ġspeech": 3437, "Ġreality": 3438, "icated": 3439, "Ġkids": 3440, "ĠJames": 3441, "Ġavoid": 3442, "Ġthroughout": 3443, "Ġfootball": 3444, "Ġstudent": 3445, "ara": 3446, "Ġcouldn": 3447, "rowd": 3448, "BI": 3449, "Ġunf": 3450, "ford": 3451, "Ġimmediately": 3452, "oul": 3453, "Ġrob": 3454, "Ġincludes": 3455, "Ġcat": 3456, "Ġconcept": 3457, "egr": 3458, "Ġcenter": 3459, "Ġchoice": 3460, "Ġscene": 3461, "Ġcomplex": 3462, "anch": 3463, "Ġadditional": 3464, "sp": 3465, "ĠMon": 3466, "Ġchalleng": 3467, "ĠCons": 3468, "Ġwife": 3469, "Ġclos": 3470, "urt": 3471, "Ġtro": 3472, "Ġrecomm": 3473, "Ġresearc": 3474, "Re": 3475, "Ġepis": 3476, "hest": 3477, "itor": 3478, "All": 3479, "Ġver": 3480, "ĠMinister": 3481, "Ġsle": 3482, "Ġcorpor": 3483, "ĠâĢ¦": 3484, "Ġdesigned": 3485, "ĠSer": 3486, "urg": 3487, "agon": 3488, "Ġremember": 3489, "Ġsoftware": 3490, "Ġsafety": 3491, "ĠIndian": 3492, "wise": 3493, "Ġgone": 3494, "Ġil": 3495, "astic": 3496, "ports": 3497, "Ġcast": 3498, "Ġsell": 3499, "Ġtoward": 3500, "Ġagency": 3501, "Ġten": 3502, "Ġofficer": 3503, "aches": 3504, "Ġfigure": 3505, "Ġpiece": 3506, "Ġbrain": 3507, "omen": 3508, "Ġbattle": 3509, "ĠJack": 3510, "men": 3511, "Ġcounter": 3512, "Ġdebate": 3513, "airs": 3514, "ression": 3515, "ston": 3516, "Ġthousands": 3517, "adem": 3518, "Ġswe": 3519, "rupt": 3520, "Ġopin": 3521, "Ġahead": 3522, "icient": 3523, "Now": 3524, "imum": 3525, "Ġrelative": 3526, "irth": 3527, "Ġletter": 3528, "Ġreceive": 3529, "Ġpressure": 3530, "ĠÐ": 3531, "ĠBo": 3532, "Ġblog": 3533, "ilies": 3534, "ampions": 3535, "Ġ>": 3536, "Ġsil": 3537, "Ġmoved": 3538, "Ġlaunch": 3539, "Ġappears": 3540, "Ġoption": 3541, "ĠPlay": 3542, "Ġpassed": 3543, "Ġut": 3544, "Ġprec": 3545, "Ġstage": 3546, "roy": 3547, "oes": 3548, "Ġ60": 3549, "Ġclean": 3550, "ĠServ": 3551, "olute": 3552, "ĠII": 3553, "atever": 3554, "berg": 3555, "OT": 3556, "Ġproperty": 3557, "27": 3558, "Ġhelped": 3559, "amb": 3560, "Ġdrive": 3561, "ĠApple": 3562, "just": 3563, "Ġalleged": 3564, "ĠGreen": 3565, "Ġtwe": 3566, "new": 3567, "Ġdisapp": 3568, "Ġtour": 3569, "Ġmeaning": 3570, "Ġrock": 3571, "Ġdog": 3572, "Ġx": 3573, "Ġcris": 3574, "itation": 3575, "ĠAssoci": 3576, "Ġsuspect": 3577, "Ġdate": 3578, "ĠRich": 3579, "aughter": 3580, "Ġmoving": 3581, "Ġscore": 3582, "ĠDemocrats": 3583, "Ġorganization": 3584, "Ġsat": 3585, "Ġconditions": 3586, "Ġtouch": 3587, "Ġdark": 3588, "Ġcommand": 3589, "ĠThen": 3590, "Ġign": 3591, "?\"": 3592, "Ġreasons": 3593, "Ġbudget": 3594, "Ġpark": 3595, "more": 3596, "Ġnuclear": 3597, "Ġmyself": 3598, "Ġnom": 3599, "Ġdeg": 3600, "Ġhappy": 3601, "Ġdevice": 3602, "Ġdifference": 3603, "rief": 3604, "ĠSim": 3605, "Ġmaybe": 3606, "chan": 3607, "Ġbeginning": 3608, "AD": 3609, "Ġcopy": 3610, "Ġnature": 3611, "Ġfailed": 3612, "wood": 3613, "Ġfan": 3614, "Ġcharacters": 3615, "yan": 3616, "Ġcomputer": 3617, "Ġencour": 3618, "Ġaim": 3619, "ĠMart": 3620, "Ġtitle": 3621, "Ġwall": 3622, "Ġcompared": 3623, "Ġleague": 3624, "ocked": 3625, "ĠSuper": 3626, "ivity": 3627, "Ġestim": 3628, "ĠVal": 3629, "ĠStar": 3630, "Ġcollege": 3631, "Ġeyes": 3632, "Ġshown": 3633, "ĠEnglish": 3634, "Ġcentury": 3635, "Ġpowerful": 3636, "ĠDay": 3637, "lease": 3638, "ource": 3639, "Ġbal": 3640, "aint": 3641, "Ġlimited": 3642, "Ġyes": 3643, "Ġband": 3644, "Ġcontribut": 3645, "Ġpositive": 3646, "Ġforced": 3647, "Ġsche": 3648, "Ġnecessary": 3649, "Ġrefer": 3650, "Ġcandidate": 3651, "Ġstra": 3652, "Ġdisp": 3653, "35": 3654, "cient": 3655, "Ġbooks": 3656, "Ġtrust": 3657, "AP": 3658, "ĠFrench": 3659, "Ġlargest": 3660, "26": 3661, "Ġarch": 3662, "enty": 3663, "Ġsal": 3664, "ĠHere": 3665, "Ġconference": 3666, "ĠRober": 3667, "aud": 3668, "Ġnote": 3669, "Ġanalysis": 3670, "ufact": 3671, "Ġspending": 3672, "Ġpresidential": 3673, "45": 3674, "ĠOf": 3675, "Ġcitizens": 3676, "orks": 3677, "Ġschools": 3678, "igration": 3679, "ĠSyria": 3680, "Ġthrow": 3681, "venue": 3682, "ĠBen": 3683, "Ġaware": 3684, "Ġmeant": 3685, "Ġexecutive": 3686, "Ġeventually": 3687, "My": 3688, "Ġphysical": 3689, "Ġfollowed": 3690, "Ġfeature": 3691, "Ġtreatment": 3692, "Ġcrowd": 3693, "Be": 3694, "ĠTor": 3695, "ĠWind": 3696, "Ġfirm": 3697, "Ġstreng": 3698, "Ġconfir": 3699, "Ġmix": 3700, "Ġbott": 3701, "ero": 3702, "Ġcorrect": 3703, "orney": 3704, "Ġ29": 3705, "ares": 3706, "ĠDis": 3707, "Ġgrad": 3708, "Ġreligious": 3709, "Ġeasily": 3710, "Ġautom": 3711, "Ġesc": 3712, "Ġpus": 3713, "band": 3714, "board": 3715, "Is": 3716, "Ġcool": 3717, "etro": 3718, "Ġ196": 3719, "Ġfamilies": 3720, "Ġilleg": 3721, "ressed": 3722, "craft": 3723, "cul": 3724, "rated": 3725, "Ġactions": 3726, "Ġoverall": 3727, "ĠAir": 3728, "ĠMex": 3729, "Ġallows": 3730, "Ġgives": 3731, "Ġfeed": 3732, "ĠÂ£": 3733, "):": 3734, "Ġsusp": 3735, "ube": 3736, "Ġyourself": 3737, "By": 3738, "Ġdraft": 3739, "bum": 3740, "ken": 3741, "Ġsmart": 3742, "Ġappeared": 3743, "Ġdetail": 3744, "Ġincome": 3745, "iring": 3746, "Ġanaly": 3747, "ĠBel": 3748, "Ġsigned": 3749, "New": 3750, "encies": 3751, "Ġcentral": 3752, "Ġideas": 3753, "Ġang": 3754, "ĠGovern": 3755, "Ġsenior": 3756, "Advertisement": 3757, "Ġfrequ": 3758, "Ġweapons": 3759, "ID": 3760, "ĠBre": 3761, "Ġhar": 3762, "Ġdisplay": 3763, "Ġpromot": 3764, "Ġnice": 3765, "Ġcredit": 3766, "Ġdecades": 3767, "Ġpsych": 3768, "Ġpolitics": 3769, "Don": 3770, "Ġcrime": 3771, "OM": 3772, "EC": 3773, "Ġuses": 3774, "inn": 3775, "Ġdoor": 3776, "Ġdise": 3777, "uty": 3778, "ĠInternational": 3779, "Ġunique": 3780, "28": 3781, "Ġaltern": 3782, "Ġlif": 3783, "According": 3784, "Ġdrop": 3785, "Ġsales": 3786, "mar": 3787, "Ġdeveloped": 3788, "Ar": 3789, "resh": 3790, "Ġcustomers": 3791, "ET": 3792, "Ġbenefits": 3793, "Ġconflic": 3794, "urance": 3795, "Ġrelated": 3796, "Ġcrisis": 3797, "ĠSchool": 3798, "Ġmist": 3799, "erry": 3800, "iable": 3801, "Ġpredict": 3802, "Ġnoted": 3803, "ĠCap": 3804, "29": 3805, "ĠAustralia": 3806, "ĠEU": 3807, "Ġtruth": 3808, "box": 3809, "part": 3810, "Ġgoals": 3811, "iny": 3812, "Ġindividuals": 3813, "Ġcharge": 3814, "ĠEarth": 3815, "Ġbeaut": 3816, "Ġcontinues": 3817, "onents": 3818, "ĠUnion": 3819, "ĠArab": 3820, "Ġobserv": 3821, "Ġrap": 3822, "Ġchallenge": 3823, "Ġsto": 3824, "nown": 3825, "Ġapparent": 3826, "ĠAngel": 3827, "itely": 3828, "ĠSmith": 3829, "Ġlic": 3830, "Ġprojects": 3831, "Ġpeace": 3832, "Ġmeasure": 3833, "ĠPolice": 3834, "oti": 3835, "Ġintelligence": 3836, "ĠChristian": 3837, "Ġpreviously": 3838, "ĠGermany": 3839, "Ġfully": 3840, "Ġrule": 3841, "Ġmanager": 3842, "Ġbrother": 3843, "Ġrates": 3844, "Ġadvant": 3845, "Un": 3846, "change": 3847, "Ġexpand": 3848, "Ġclearly": 3849, "Ġreform": 3850, "Ġlines": 3851, "net": 3852, "Ġsuccessful": 3853, "riage": 3854, "Ġhighly": 3855, "Ġlarger": 3856, "ounds": 3857, "21": 3858, "Ġtraff": 3859, "Ġspread": 3860, "iance": 3861, "Ġseemed": 3862, "ĠCouncil": 3863, "Ġstraight": 3864, "Some": 3865, "Ġcriminal": 3866, "ĠComp": 3867, "Ġminor": 3868, "Ġemb": 3869, "ki": 3870, "ĠGeorge": 3871, "Ġprograms": 3872, "iced": 3873, "attle": 3874, "owers": 3875, "ĠFranc": 3876, "Ġincident": 3877, "Ġresources": 3878, "ĠTom": 3879, "Ġgreater": 3880, "Ġprimary": 3881, "IA": 3882, "inated": 3883, "antly": 3884, "Ġknowledge": 3885, "Pro": 3886, "Ġstudies": 3887, "while": 3888, "dom": 3889, "Ġsave": 3890, "orter": 3891, "Ġweb": 3892, "ategy": 3893, "ean": 3894, "Ġkept": 3895, "Ġattract": 3896, "ĠFlor": 3897, "olic": 3898, "Ġspir": 3899, "Ġemot": 3900, "que": 3901, "Ġcolor": 3902, "Ġfeet": 3903, "ĠCr": 3904, "sey": 3905, "Ġrare": 3906, "Ġreached": 3907, "ĠAnt": 3908, "secut": 3909, "Ġarm": 3910, "ĠHigh": 3911, "levision": 3912, "ĠInternet": 3913, "ĠBrown": 3914, "oday": 3915, "iders": 3916, "osh": 3917, "Ġfavorite": 3918, "Ġplaces": 3919, "rs": 3920, "ĠRec": 3921, "Ġregular": 3922, "wide": 3923, "ota": 3924, "vere": 3925, "Ġmanufact": 3926, "Ġlaun": 3927, "ĠDef": 3928, "100": 3929, "Ġsend": 3930, "Ġprem": 3931, "ĠHam": 3932, "roll": 3933, "lick": 3934, "icit": 3935, "Ġknows": 3936, "Ġshooting": 3937, "Ġactivity": 3938, "Ġpun": 3939, "Ġsources": 3940, "Ġnormal": 3941, "icago": 3942, "bon": 3943, "term": 3944, "ingly": 3945, "onent": 3946, "ser": 3947, "ville": 3948, "Ġstatus": 3949, "Ġfighting": 3950, "Ġvoice": 3951, "Ġrise": 3952, "ocks": 3953, "Ġfine": 3954, "Ġowners": 3955, "Ġcaused": 3956, "Ġclaimed": 3957, "ĠMac": 3958, "Ġenem": 3959, "Ġliter": 3960, "ĠRob": 3961, "ĠUp": 3962, "ĠGeneral": 3963, "aith": 3964, "EO": 3965, "Ġoptions": 3966, "Ġ2007": 3967, "Ġintegr": 3968, "ength": 3969, "usion": 3970, "Ġspend": 3971, "ĠGold": 3972, "ado": 3973, "Ġcities": 3974, "miss": 3975, "Ġorganiz": 3976, "ING": 3977, "Ġended": 3978, "iled": 3979, "Ġresearchers": 3980, "Ġcalling": 3981, "Ġshut": 3982, "Ġreflect": 3983, "ĠLa": 3984, "mission": 3985, "mark": 3986, "org": 3987, "âĢĿ,": 3988, "oles": 3989, "70": 3990, "roid": 3991, "Ġprices": 3992, "ĠEvery": 3993, "Ġalbum": 3994, "ĠFrom": 3995, "ifying": 3996, "Ġemployees": 3997, "Ġfemale": 3998, "ĠEngland": 3999, "ya": 4000, "www": 4001, "Ġvirt": 4002, "Ġhaven": 4003, "Ġraised": 4004, "mittee": 4005, "Ġele": 4006, "Ġjump": 4007, "uana": 4008, "33": 4009, "Ġsupposed": 4010, "itness": 4011, "Ġhappens": 4012, "Ġadding": 4013, "Ġpolicies": 4014, "Ġnames": 4015, "Ġcharges": 4016, "Ġpros": 4017, "Ġtrou": 4018, "ica": 4019, "ribution": 4020, "Ġbasic": 4021, "iverse": 4022, "uman": 4023, "Not": 4024, "ĠMag": 4025, "Ġconcerns": 4026, "Ġtraditional": 4027, "Ġwait": 4028, "inger": 4029, "Ġplant": 4030, "Ġabsolute": 4031, "Ġacqu": 4032, "Ġhospital": 4033, "Ġfunding": 4034, "ram": 4035, "ĠBay": 4036, "Ġprint": 4037, "Ġslight": 4038, "Ġcommer": 4039, "rol": 4040, "Ġpatients": 4041, "Ġauthorities": 4042, "Ġminister": 4043, "Sc": 4044, "Ġcreating": 4045, "Ġfreedom": 4046, "ĠAP": 4047, "Ġmechan": 4048, "Ġscen": 4049, "ĠMo": 4050, "Ġstyle": 4051, "Ġseeing": 4052, "Ġgrand": 4053, ".âĢĻ": 4054, "Ġbeat": 4055, "Ġlik": 4056, "ona": 4057, "rian": 4058, "Ġstation": 4059, "ĠScott": 4060, "see": 4061, "Ġpush": 4062, "ijuana": 4063, "Ġbehavior": 4064, "Ġbeg": 4065, "Ġleaving": 4066, "Ġcry": 4067, "Ġimpl": 4068, "Ġbirth": 4069, "Ġir": 4070, "Ġactual": 4071, "EL": 4072, "Ġensure": 4073, "Ġoffered": 4074, "pen": 4075, "Ġagreement": 4076, "ĠFlorida": 4077, "Ġeth": 4078, "soft": 4079, "ĠHillary": 4080, "Ġposted": 4081, "Ġgold": 4082, "ĠSun": 4083, "Ġweekend": 4084, "Ġgreen": 4085, "ĠMost": 4086, "ĠBer": 4087, "ĠReg": 4088, "Ġadult": 4089, "alse": 4090, "Ġweight": 4091, "OU": 4092, ".'": 4093, "acing": 4094, "Ġdetermin": 4095, "Ġvac": 4096, "Here": 4097, "Ġrevealed": 4098, "ĠWell": 4099, "Ġapplication": 4100, "Ġmostly": 4101, "Ġvalues": 4102, "Ġpropos": 4103, "itude": 4104, "ĠAlex": 4105, "aby": 4106, "Ġwilling": 4107, "earch": 4108, "Ġrank": 4109, "Ġadop": 4110, "ĠAccording": 4111, "Ġestabl": 4112, "Ġeye": 4113, "Ġrecords": 4114, "ection": 4115, "âĢ¢": 4116, "500": 4117, "Ġenforce": 4118, "http": 4119, "Ġpicture": 4120, "Ġbelieved": 4121, "pri": 4122, "Ġmer": 4123, "uild": 4124, "Ġbrief": 4125, "ĠLet": 4126, "Ġlearned": 4127, "ĠLaw": 4128, "Ġinstall": 4129, "Ġstrategy": 4130, "Ġappl": 4131, "SA": 4132, "igned": 4133, "Ġchoose": 4134, "istry": 4135, "Ġdire": 4136, "Ġwonder": 4137, "Ġqual": 4138, "Ġmassive": 4139, "Ġdevices": 4140, "Ġbenefit": 4141, "Ġwild": 4142, "Ġparties": 4143, "ĠChicago": 4144, "Ġlawy": 4145, "ĠPeople": 4146, "Ġuns": 4147, "cher": 4148, "Ġcars": 4149, "ĠTrans": 4150, "ĠPort": 4151, "cont": 4152, "ĠPhil": 4153, "Ġarrested": 4154, "Ġmount": 4155, "Ġwhatever": 4156, "Ġwat": 4157, "ĠOh": 4158, "ĠFrance": 4159, "Ġstreet": 4160, "Ġ;": 4161, "Ġprovides": 4162, "Ġwhom": 4163, "Ġassault": 4164, "90": 4165, "liament": 4166, "Ġasking": 4167, "Ġinfluence": 4168, "ties": 4169, "Ġjudge": 4170, "Ġlose": 4171, "Ġfat": 4172, "Ġfeeling": 4173, "Ġoperations": 4174, "Ġproduced": 4175, "Ġtemper": 4176, "ste": 4177, "Ġcritical": 4178, "ĠSecret": 4179, "ĠLou": 4180, "Ġnegoti": 4181, "point": 4182, "Ġmission": 4183, "Ġenter": 4184, "ĠBush": 4185, "Ex": 4186, "Ġimages": 4187, "Ð¾": 4188, "ĠStud": 4189, "Ġconfirmed": 4190, "Ġshowing": 4191, "IL": 4192, "Ġdistrict": 4193, "ription": 4194, "Ġruns": 4195, "Ġpattern": 4196, "gen": 4197, "Ġtend": 4198, "ĠMat": 4199, "Ġborder": 4200, "Ġresidents": 4201, "orial": 4202, "rav": 4203, "Ġdebt": 4204, "However": 4205, "ĠÃ": 4206, "aked": 4207, "no": 4208, "Ġcru": 4209, "Ġteac": 4210, "mine": 4211, "ĠCommittee": 4212, "udd": 4213, "Ġopposition": 4214, "Cl": 4215, "Ġcelebr": 4216, "ĠWall": 4217, "ĠHealth": 4218, "Ġsection": 4219, "Ġdefend": 4220, "Ġetc": 4221, "estic": 4222, "Ġproduce": 4223, "icial": 4224, "ĠCommission": 4225, "Ġdrink": 4226, "Ġindependent": 4227, "ĠMod": 4228, "ront": 4229, "cell": 4230, "ĠWhy": 4231, "Ġbrand": 4232, "ented": 4233, "ags": 4234, "ugg": 4235, "Ġcore": 4236, "ĠPress": 4237, "Ġtick": 4238, "Ġdigital": 4239, "ĠBit": 4240, "Ġhero": 4241, "Ġadvoc": 4242, "ae": 4243, "Ġdollars": 4244, "ocr": 4245, "rial": 4246, "Ġeffective": 4247, "Ġsolution": 4248, "ĠMal": 4249, "Ġvill": 4250, "Ġinterested": 4251, "ĠSam": 4252, "ĠKorea": 4253, "BA": 4254, "Ġhighest": 4255, "ords": 4256, "Ġmemory": 4257, "Ġopening": 4258, "Ġworse": 4259, "Ġlearning": 4260, "Ġresponsible": 4261, "Ġtrial": 4262, "Ġdaily": 4263, "Ġkick": 4264, "Ġtheory": 4265, "ĠOther": 4266, "Ġoffers": 4267, "ĠPalest": 4268, "Ġreplace": 4269, "Ġrestrict": 4270, "ĠGet": 4271, "Ġmur": 4272, "ĠOffice": 4273, "Ġagreed": 4274, "Ġtelevision": 4275, "ĠFrancis": 4276, "cience": 4277, "ĠMicro": 4278, "ĠBecause": 4279, "Ġoccas": 4280, "ST": 4281, "illing": 4282, "CC": 4283, "Ġtrain": 4284, "Ġinvestment": 4285, "Ġvs": 4286, "Ġtypes": 4287, "iation": 4288, "ĠWestern": 4289, "aks": 4290, "icians": 4291, "Ġchair": 4292, "Ġmiles": 4293, "Ġmillions": 4294, "uries": 4295, "Ġchem": 4296, "ĠJustice": 4297, "ĠDel": 4298, "Ġgenerally": 4299, "Ġbasis": 4300, "Ġproposed": 4301, "Ġ80": 4302, "ĠMike": 4303, "ĠMil": 4304, "ĠCup": 4305, "These": 4306, "ipe": 4307, "Ġheavy": 4308, "Ġexplained": 4309, "Ġmap": 4310, "ĠOur": 4311, "AA": 4312, "rad": 4313, "Ġder": 4314, "Ġbur": 4315, "oly": 4316, "Ġpartners": 4317, "ander": 4318, "ĠAdd": 4319, "Ġopinion": 4320, "win": 4321, "Ġdefe": 4322, "Ġonto": 4323, "Ġprotest": 4324, "Con": 4325, "________": 4326, "Get": 4327, "Ġassociated": 4328, "Ġload": 4329, "rig": 4330, "azing": 4331, "ĠNFL": 4332, "rate": 4333, "oom": 4334, "44": 4335, "ĠFound": 4336, "Ġmale": 4337, "Ġbecomes": 4338, "Ġreject": 4339, "outhern": 4340, "====": 4341, "ĠSecurity": 4342, "vest": 4343, "Ġcoal": 4344, "Ġobtain": 4345, "Ġdestroy": 4346, "Ġadvantage": 4347, "Ġassum": 4348, "ĠLiber": 4349, "Ġcondition": 4350, "Ġannounce": 4351, "Ġhundreds": 4352, "Ġachieve": 4353, "Ġopened": 4354, "eline": 4355, "Ġunderstanding": 4356, "odes": 4357, "ĠJohnson": 4358, "coming": 4359, "icip": 4360, "Ġsurround": 4361, "ading": 4362, "orthern": 4363, "bert": 4364, "well": 4365, "la": 4366, "upp": 4367, "Ġinitial": 4368, "ĠAtt": 4369, "ĠBig": 4370, "Ġsleep": 4371, "36": 4372, "Ġship": 4373, "Ġmarriage": 4374, "Ġmanagement": 4375, "ĠWindows": 4376, "Ġthus": 4377, "Ġlimit": 4378, "Ġborn": 4379, "32": 4380, "Ġbecoming": 4381, "known": 4382, "Ġphoto": 4383, "Ġeasier": 4384, "FC": 4385, "ĠGreat": 4386, "Ġrat": 4387, "Ġlegislation": 4388, "Ġcontrovers": 4389, "Ġunlike": 4390, "Ġelectric": 4391, "ĠMany": 4392, "Ġcamera": 4393, "witch": 4394, "Ġaccused": 4395, "Ġspl": 4396, "Ġneighbor": 4397, "Ġdouble": 4398, "Ġice": 4399, "Ġspecies": 4400, "lant": 4401, "Ġshared": 4402, "Ġjoin": 4403, "Ġillegal": 4404, "Ġ31": 4405, "ĠLab": 4406, "Ġ2006": 4407, "Mr": 4408, "Ġharm": 4409, "Ġmachine": 4410, "Ġserved": 4411, "ĠJer": 4412, "GB": 4413, "Ġextremely": 4414, "olf": 4415, "Ġactive": 4416, "Ġ35": 4417, "Ġserve": 4418, "Ġdocuments": 4419, "ĠIslamic": 4420, "Ġframe": 4421, "za": 4422, "Ġstrik": 4423, "level": 4424, "ĠDist": 4425, "Ġaudience": 4426, "BS": 4427, "Ġlocation": 4428, "ĠAM": 4429, "Ġscientists": 4430, "Ġbottom": 4431, "Ġvictims": 4432, "ĠArt": 4433, "orrow": 4434, "Ġwealth": 4435, "Ġprofessional": 4436, "Ġresist": 4437, "ih": 4438, "Ġreduce": 4439, "Ġbelief": 4440, "Ġnine": 4441, "Ġsolid": 4442, "Ġwinning": 4443, "Ġmarijuana": 4444, "ears": 4445, "ĠUk": 4446, "Ġnegative": 4447, "75": 4448, "iful": 4449, "Ġcommunities": 4450, "Ġreturned": 4451, "ortunately": 4452, "Ġbed": 4453, "Ġincred": 4454, "ĠPM": 4455, "ĠInstitute": 4456, "met": 4457, "tered": 4458, "Ġchurch": 4459, "PS": 4460, "Ġdepartment": 4461, "irgin": 4462, "ĠSanders": 4463, "Ġran": 4464, "Ġvictory": 4465, "rey": 4466, "Ġpurpose": 4467, "Ġ90": 4468, "ĠCommun": 4469, "Ġamb": 4470, "lands": 4471, "Ġvehicle": 4472, "Ġinternet": 4473, "Ġleadership": 4474, "ios": 4475, "ĠHall": 4476, "istics": 4477, "Ġbomb": 4478, "Ġmobile": 4479, "ghan": 4480, "Ġinstance": 4481, "ipped": 4482, "38": 4483, "Ġseparate": 4484, "Ġexisting": 4485, "Ġnotice": 4486, "Ġhearing": 4487, "Ġdie": 4488, "Ġexplain": 4489, "Ġdoubt": 4490, "Ġfaith": 4491, "Ġteach": 4492, "house": 4493, "ĠYour": 4494, "atically": 4495, "Ġepisode": 4496, "Ġwatching": 4497, "Ġcomfort": 4498, "ĠCanadian": 4499, "ĠBank": 4500, "Ġnotes": 4501, "Ġradio": 4502, "ĠEv": 4503, "Ġfresh": 4504, "ĠFin": 4505, "Ġunc": 4506, "Ġviews": 4507, "ĠInc": 4508, "Ġputting": 4509, "asy": 4510, "Ġsupporters": 4511, "Ġconservative": 4512, "Ġpurs": 4513, "Ġargument": 4514, "omas": 4515, "Ġmicro": 4516, "ario": 4517, "acity": 4518, "Ġlaunched": 4519, "scrib": 4520, "works": 4521, "OL": 4522, "Ġappeal": 4523, "iliar": 4524, "Ġitems": 4525, "Ġcommittee": 4526, "resp": 4527, "ĠMad": 4528, "which": 4529, "Ġdefinitely": 4530, "Ġdangerous": 4531, "iller": 4532, "PA": 4533, "zen": 4534, "Ġcoverage": 4535, "Ġdirection": 4536, "ĠOver": 4537, "Ġcharged": 4538, "Ġfloor": 4539, "Ġsun": 4540, "Ġmax": 4541, "ography": 4542, "34": 4543, "EM": 4544, "ĠCarol": 4545, "ĠChurch": 4546, "ĠFox": 4547, "Ġissued": 4548, "Ġdrugs": 4549, "Image": 4550, "ipp": 4551, "Ġtask": 4552, "Ġbackground": 4553, "Ġcompetition": 4554, "Ġtrend": 4555, "Ġstated": 4556, "vention": 4557, "andom": 4558, "ada": 4559, "Ġtraffic": 4560, "ĠFBI": 4561, "Ġcommercial": 4562, "ĠDirect": 4563, "urb": 4564, "itt": 4565, "NA": 4566, "Ġspoke": 4567, "Ġsett": 4568, "inct": 4569, "Ġtransfer": 4570, "Ġsuggested": 4571, "Ġstructure": 4572, "Ġsites": 4573, "Ġhus": 4574, "Ġnorth": 4575, "ĠSince": 4576, "ĠLike": 4577, "Ġrestaur": 4578, "ampionship": 4579, "Ġlabor": 4580, "Ġdecade": 4581, "Ġrepeated": 4582, "ĠGame": 4583, "Ġreact": 4584, "oman": 4585, "Ġcards": 4586, "Ġanimals": 4587, "going": 4588, "Ġnovel": 4589, "ctors": 4590, "but": 4591, "ribute": 4592, "Ġdaughter": 4593, "anted": 4594, "ĠSl": 4595, "Ġdriving": 4596, "Ġclosed": 4597, "Ġworst": 4598, "Ġcontain": 4599, "Ġentirely": 4600, "Ġded": 4601, "ĠBritain": 4602, "ady": 4603, "gency": 4604, "Ġdriver": 4605, "ĠWil": 4606, "Ġdisease": 4607, "Ġtelling": 4608, "iling": 4609, "Ġsmaller": 4610, "Ġdiscovered": 4611, "Ġnor": 4612, "Bl": 4613, "akistan": 4614, "Ġrefere": 4615, "ĠPri": 4616, "Americ": 4617, "ĠLos": 4618, "ius": 4619, "Ġhack": 4620, "hem": 4621, "equ": 4622, "!âĢĿ": 4623, "ference": 4624, "ĠQue": 4625, "spe": 4626, "Ġfalse": 4627, "Ġcash": 4628, "Ġconcerned": 4629, "ulf": 4630, "Ġplays": 4631, "Ġsurface": 4632, "semb": 4633, "Ġsupported": 4634, "annel": 4635, "ulated": 4636, "Ġtools": 4637, "oyal": 4638, "Ġcompar": 4639, "Ġtransport": 4640, "ĠChris": 4641, "Ġexperiment": 4642, "Ġfinding": 4643, "night": 4644, "Ġcateg": 4645, "ãĤ": 4646, "Ġaspect": 4647, "##": 4648, "Ġbusinesses": 4649, "Ġ70": 4650, "ĠUN": 4651, "ait": 4652, "Ġfarm": 4653, "Ġplease": 4654, "Ġolder": 4655, "azon": 4656, "how": 4657, "Ġactivities": 4658, "Ġrequires": 4659, "phone": 4660, "CH": 4661, "Ġgay": 4662, "ĠJones": 4663, "do": 4664, "ibrary": 4665, "Ġstrength": 4666, "48": 4667, "Ġwel": 4668, "andon": 4669, "Ġinsurance": 4670, "Ġconsequ": 4671, "37": 4672, "Ġlargely": 4673, "Ġmurder": 4674, "NN": 4675, "ici": 4676, "55": 4677, "Ġexerc": 4678, "Ġcaught": 4679, "Ġcandidates": 4680, "kins": 4681, "ĠIsraeli": 4682, "Ġallowing": 4683, "icy": 4684, "Ġblue": 4685, "ĠAre": 4686, "Ġannual": 4687, "ĠKen": 4688, "ĠTre": 4689, "Ġtesting": 4690, "ossible": 4691, "Ġstrateg": 4692, "ĠSup": 4693, "Ġraise": 4694, "Ġstock": 4695, "arant": 4696, "overy": 4697, "ĠRobert": 4698, "izes": 4699, "Ġdecisions": 4700, "Ġaccur": 4701, "rick": 4702, "Ġcontext": 4703, "Ġfuel": 4704, "ĠAc": 4705, "SP": 4706, "lor": 4707, "osure": 4708, "ĠUkrain": 4709, "Ġconcern": 4710, "Ġafford": 4711, "Ġbelieves": 4712, "Ġconstruction": 4713, "Ġtruly": 4714, "****": 4715, "ĠTy": 4716, "ĠMiss": 4717, "Ġge": 4718, "Ġjustice": 4719, "igrants": 4720, "Ġgeneration": 4721, "Ġhighlight": 4722, "Ġunit": 4723, "rim": 4724, "Ġpresence": 4725, "ĠJewish": 4726, "anging": 4727, "!!": 4728, "ĠSil": 4729, "Ð°": 4730, "tery": 4731, "Ðµ": 4732, "ception": 4733, "ĠAfrica": 4734, "Ġguess": 4735, "ancy": 4736, "Ġwitness": 4737, "itable": 4738, "Ġholding": 4739, "ĠGree": 4740, "Ġestablish": 4741, "Ġlength": 4742, "Ġplanning": 4743, "bre": 4744, "ava": 4745, "ĠAfrican": 4746, "Ġsequ": 4747, "cknow": 4748, "Ġrefuge": 4749, "Ġplaced": 4750, "Ġcatch": 4751, "ĠAfghan": 4752, "Ġsan": 4753, "inter": 4754, "ĠAssociation": 4755, "Ġtells": 4756, "âĢĺ": 4757, "Ġscale": 4758, "ey": 4759, "Ġspokesman": 4760, "Ġtim": 4761, "nel": 4762, "Ġrough": 4763, "Ġattend": 4764, "olly": 4765, "ĠVer": 4766, "Ġcells": 4767, "Ġjoined": 4768, "ĠPre": 4769, "Ġmentioned": 4770, "Ġinterests": 4771, "Ġabuse": 4772, "pective": 4773, "ĠJim": 4774, "More": 4775, "Ġhasn": 4776, "ĠPC": 4777, "Le": 4778, "Ġiniti": 4779, "Ġenforcement": 4780, "Ġkid": 4781, "ĠGOP": 4782, "Ġintroduced": 4783, "Ġdeliver": 4784, "Ġconflict": 4785, "ĠMer": 4786, "ĠMicrosoft": 4787, "Ġphil": 4788, "âĢĶâĢĶ": 4789, "Ġupdate": 4790, "Ġmissing": 4791, "ros": 4792, "Ġproviding": 4793, "Ġwaiting": 4794, "Ġcancer": 4795, "39": 4796, "Ġrecommend": 4797, "ocracy": 4798, "Ġestablished": 4799, "isation": 4800, "Ġeat": 4801, "bour": 4802, "ĠYes": 4803, "Ġoccup": 4804, "ĠFrank": 4805, "ĠJeff": 4806, "ĠAngeles": 4807, "Ġremoved": 4808, "Ġ2005": 4809, "ula": 4810, "Ġoffensive": 4811, "ĠFore": 4812, "ĠInstead": 4813, "icon": 4814, "Ġinjury": 4815, "Ġsports": 4816, "47": 4817, "Ġfant": 4818, "Ġdiscussion": 4819, "vant": 4820, "Ġoperation": 4821, "Ġdownload": 4822, "Ġuseful": 4823, "Ġnewsp": 4824, "Ġconversation": 4825, "Ġhomes": 4826, "ronic": 4827, "Ġsouth": 4828, "Ġcook": 4829, "ĠCEO": 4830, "Ġassess": 4831, "ĠGroup": 4832, "itz": 4833, "formation": 4834, "lig": 4835, "Ġbanks": 4836, "onto": 4837, "Ġstopped": 4838, "ĠStep": 4839, "ĠConst": 4840, "Ġobvious": 4841, "ications": 4842, "Ġmeasures": 4843, "Ġmodels": 4844, "ĠKh": 4845, "Ġfourth": 4846, "ĠMP": 4847, "Our": 4848, "season": 4849, "DA": 4850, "what": 4851, "Ġbul": 4852, "anda": 4853, "Ġ2018": 4854, "Ġfiles": 4855, "Ġgirls": 4856, "ĠLouis": 4857, "Ġstick": 4858, "cks": 4859, "azine": 4860, "mail": 4861, "umn": 4862, "Ġmanaged": 4863, "iter": 4864, "apped": 4865, "ĠPalestin": 4866, "oted": 4867, "Ġfigures": 4868, "oms": 4869, "ĠTim": 4870, "ĠLeg": 4871, "Ġidentified": 4872, "Ġgraph": 4873, "ĠJud": 4874, "ĠSal": 4875, "Ġfinished": 4876, "Ġfunds": 4877, "Pl": 4878, "ĠPakistan": 4879, "real": 4880, "Ġsetting": 4881, "Ġconclud": 4882, "Ġprefer": 4883, "Ġhair": 4884, "Ġcommitted": 4885, "ĠMexico": 4886, "49": 4887, "Ġskills": 4888, "kin": 4889, "Ġappropri": 4890, "Ġspirit": 4891, "ĠRock": 4892, "Ġveter": 4893, "Ġfocused": 4894, "Ġarrived": 4895, "ĠTHE": 4896, "Ġhousing": 4897, "ĠVirgin": 4898, "Ġkeeping": 4899, "Ġtherefore": 4900, "Ġacknow": 4901, "Ġdetect": 4902, "ulate": 4903, "Des": 4904, "Ġpartner": 4905, "Ġexclus": 4906, "igan": 4907, "ĠAndroid": 4908, "enses": 4909, "ups": 4910, "Ġearth": 4911, "Ġtransl": 4912, "outs": 4913, "place": 4914, "Ġtough": 4915, "ĠJapanese": 4916, "Ġ2000": 4917, "Ġrelatively": 4918, "Ã¡": 4919, "ĠSupreme": 4920, "owl": 4921, "wing": 4922, "Ġidentity": 4923, "Ġfeels": 4924, "rd": 4925, "ĠMet": 4926, "Ġotherwise": 4927, "Ġsurvey": 4928, "RA": 4929, "ĠRyan": 4930, "ocal": 4931, "ication": 4932, "itutional": 4933, "Ġprotection": 4934, "agn": 4935, "Ġexchange": 4936, "Ġowner": 4937, "isf": 4938, "Trump": 4939, "Ġsteps": 4940, "ĠInter": 4941, "Ġtrip": 4942, "imb": 4943, "Ġhusband": 4944, "ĠMont": 4945, "Ġtweet": 4946, "Ġconnection": 4947, "ĠArmy": 4948, "Ġslightly": 4949, "ĠProf": 4950, "eah": 4951, "ka": 4952, "Ġweak": 4953, "ĠGovernment": 4954, "verse": 4955, "\":": 4956, "Ġcircum": 4957, "Ġelements": 4958, "Ġclick": 4959, "ĠRichard": 4960, "Ġstrike": 4961, "Ġphotos": 4962, "ga": 4963, "Ġmere": 4964, "Ġdefensive": 4965, "dden": 4966, "gar": 4967, "Ġgain": 4968, "Ġfle": 4969, "Ġdepend": 4970, "ucky": 4971, "Ġcollection": 4972, "onym": 4973, "hens": 4974, "Ġkilling": 4975, "Ġroll": 4976, "ighter": 4977, "Go": 4978, "Ġcorner": 4979, "ĠMartin": 4980, "ancing": 4981, "odies": 4982, "Ġsuggests": 4983, "uct": 4984, "Ġaggress": 4985, "with": 4986, "prof": 4987, "Ġguard": 4988, "Photo": 4989, "Ġgender": 4990, "makers": 4991, "ĠCollege": 4992, "Ġcommission": 4993, "ĠAlthough": 4994, "range": 4995, "Ġdat": 4996, "ĠSur": 4997, "46": 4998, "ĠIr": 4999, "ĠDec": 5000, "Ġmental": 5001, "icide": 5002, "Ġamazing": 5003, "rees": 5004, "ĠSub": 5005, "hi": 5006, "Ġplanet": 5007, "ĠTeam": 5008, "rency": 5009, "ĠOut": 5010, "Ġbigger": 5011, "Ġfailure": 5012, "ym": 5013, "ĠJose": 5014, "Ġsupply": 5015, "Why": 5016, "ania": 5017, "ĠNor": 5018, "Ġstarts": 5019, "gers": 5020, "Ġsides": 5021, "hedul": 5022, "iser": 5023, "Ġfamiliar": 5024, "Ġremind": 5025, "Ġsust": 5026, "Ġspect": 5027, "ils": 5028, "uate": 5029, "Ġspeaking": 5030, "ano": 5031, "Ġtalks": 5032, "Ġhappening": 5033, "mas": 5034, "gypt": 5035, "Ġorganizations": 5036, "Ġhate": 5037, "Ġwindow": 5038, "Ġarmy": 5039, "ĠGood": 5040, "ĠJoe": 5041, "Ġnone": 5042, "uke": 5043, "Ġtaxes": 5044, "Ġplanned": 5045, "ĠPet": 5046, "Ġthanks": 5047, "ĠMary": 5048, "Ġstruct": 5049, "Ġpit": 5050, "Ġdecide": 5051, "Ġsudden": 5052, "Ġwish": 5053, "lo": 5054, "Ġcrew": 5055, "Ġcarried": 5056, "Ġappoint": 5057, "oston": 5058, "Ġpet": 5059, "awn": 5060, "eless": 5061, "agues": 5062, "ynam": 5063, "Ġregist": 5064, "TC": 5065, "Ġmulti": 5066, "idering": 5067, "Ġhelping": 5068, "Last": 5069, "Ġaward": 5070, "Ġstandards": 5071, "Ġ32": 5072, "ĠFire": 5073, "Ġrevolution": 5074, "Ġenvironmental": 5075, "].": 5076, "ĠWeb": 5077, "arsh": 5078, "ĠThomas": 5079, "olit": 5080, "Ġscript": 5081, "pm": 5082, "ola": 5083, "Ġseconds": 5084, "gn": 5085, "run": 5086, "ĠResearch": 5087, "Ġscientific": 5088, "ĠBern": 5089, "Ġimmigration": 5090, "Ġstanding": 5091, "ĠTheir": 5092, "Ġ45": 5093, "stream": 5094, "ocol": 5095, "Ġque": 5096, "Ġbeer": 5097, "Ġdomestic": 5098, "imal": 5099, "adium": 5100, "Ġpair": 5101, "uters": 5102, "ĠAlso": 5103, "ĠSecretary": 5104, "ĠUs": 5105, "Ġacadem": 5106, "Ġcold": 5107, "Ġvariety": 5108, "Ġmarkets": 5109, "Ġsch": 5110, "fe": 5111, "HL": 5112, "Ġterrit": 5113, "Ġdropped": 5114, "Ġaccounts": 5115, "!\"": 5116, "ĠAtlant": 5117, "Ġfiled": 5118, "erous": 5119, "acks": 5120, "illa": 5121, "Ġbalance": 5122, "Ġimpossible": 5123, "ĠTer": 5124, "aven": 5125, "Ġinteract": 5126, "Ġneighborhood": 5127, "Ġdegree": 5128, "Read": 5129, "Ġturns": 5130, "ores": 5131, "itect": 5132, "Ġpossibly": 5133, "Ġappre": 5134, "Ġoperating": 5135, "Ġprinc": 5136, "Ġalternative": 5137, "Ġunion": 5138, "Ġvotes": 5139, "Ġvul": 5140, "ader": 5141, "Ġprofessor": 5142, "Ġtack": 5143, "ĠService": 5144, "Ġincreasingly": 5145, "ayer": 5146, "ruit": 5147, "Ġapply": 5148, "Ġfellow": 5149, "Ġcuts": 5150, "stein": 5151, "Ġhonest": 5152, "ĠPrime": 5153, "Ġunivers": 5154, "Ġserver": 5155, "vis": 5156, "Ġdevelopers": 5157, "arks": 5158, "ĠSyrian": 5159, "Ġapparently": 5160, "abb": 5161, "aren": 5162, "Ġlived": 5163, "Ġchanging": 5164, "Ġworry": 5165, "rastructure": 5166, "ĠCarolina": 5167, "Ġtests": 5168, "Ġunits": 5169, "Ġrich": 5170, "ĠTwo": 5171, "cious": 5172, "icted": 5173, "From": 5174, "aded": 5175, "Ġhumans": 5176, "IM": 5177, "ĠFoundation": 5178, "ĠMos": 5179, "Ġagencies": 5180, "Ġsounds": 5181, "ashed": 5182, "Ġtwice": 5183, "Ġultimately": 5184, "obby": 5185, "Ġlosing": 5186, "Ġphilos": 5187, "Ġauthority": 5188, "Ġsoldiers": 5189, "ãĥ": 5190, "Ġanimal": 5191, "gu": 5192, "ĠImages": 5193, "Ġsettle": 5194, "Ġath": 5195, "Ġschedul": 5196, "Ġmut": 5197, "Ġcolle": 5198, "Ġcorporate": 5199, "Ġabsolutely": 5200, "Ġhealthy": 5201, "Ġpaying": 5202, "och": 5203, "Ġequip": 5204, "iams": 5205, "Ġdeveloping": 5206, "Ġsea": 5207, "ĠTime": 5208, "Ġcloser": 5209, "ĠDen": 5210, "Ġinnov": 5211, "related": 5212, "Ġseeking": 5213, "Ġregarding": 5214, "coh": 5215, "roud": 5216, "Ġskin": 5217, "Ġexpensive": 5218, "ansion": 5219, "Ġpossibility": 5220, "Ġbeautiful": 5221, "Ġreligion": 5222, "Ġapart": 5223, "ĠCentral": 5224, "Ġfundament": 5225, "Ġexperts": 5226, "Ġsolar": 5227, "65": 5228, "Ġyards": 5229, "Ġvast": 5230, "Ġwriter": 5231, "Ġflight": 5232, "ĠDistrict": 5233, "ĠLast": 5234, "Ġdeploy": 5235, "Ġadjust": 5236, "Of": 5237, "Ġinternal": 5238, "Ġtast": 5239, "ĠUnder": 5240, "ĠLat": 5241, "31": 5242, "ĠPeter": 5243, "apers": 5244, "Ġimagine": 5245, "ĠJon": 5246, "IV": 5247, "Ġapplications": 5248, "iot": 5249, "ologies": 5250, "Ġvision": 5251, "look": 5252, "state": 5253, "osen": 5254, "ĠFrancisco": 5255, "ĠToronto": 5256, "den": 5257, "Ġsitting": 5258, "ĠPlan": 5259, "Ġtrail": 5260, "Ġunless": 5261, "ĠUSA": 5262, "ĠJes": 5263, "isted": 5264, "Ġheat": 5265, "Ġ2004": 5266, "Even": 5267, "Ġresponsibility": 5268, "Ġcapacity": 5269, "IP": 5270, "atures": 5271, "ĠMiddle": 5272, "Ġerror": 5273, "aine": 5274, "ias": 5275, "Ġsymb": 5276, "Ġfol": 5277, "Ġarms": 5278, "Ġpil": 5279, "Ġgar": 5280, "pire": 5281, "Ġcovered": 5282, "idden": 5283, "ĠBur": 5284, "Ġfamous": 5285, "ĠCamp": 5286, "Ġforms": 5287, "uzz": 5288, "ND": 5289, "Ġuniversity": 5290, "Ġguarant": 5291, "Ġtight": 5292, "Ġpresented": 5293, "ortion": 5294, "oving": 5295, "enced": 5296, "ĠST": 5297, "ĠEgypt": 5298, "Ġearn": 5299, "ĠPut": 5300, "Ġconvention": 5301, "under": 5302, "Just": 5303, "ĠPublic": 5304, "Ġsurprise": 5305, "Ġattorney": 5306, "Ġelections": 5307, "Ġestimated": 5308, "Ġfif": 5309, "ĠAri": 5310, "Ġteen": 5311, "Ġinstit": 5312, "Ġvehicles": 5313, "rible": 5314, "ĠAmazon": 5315, "road": 5316, "Ġintended": 5317, "Ġrid": 5318, "Ġodd": 5319, "Ġhelps": 5320, "Ġoccurred": 5321, "person": 5322, "Ġstreets": 5323, "uster": 5324, "hand": 5325, "ini": 5326, "ĠBoston": 5327, "ĠSol": 5328, "Ġ=>": 5329, "=\"": 5330, "ĠMur": 5331, "Ġsport": 5332, "sen": 5333, "Ġdetermine": 5334, "ressive": 5335, "ĠBitcoin": 5336, "Ġexpert": 5337, "alls": 5338, "Ġconsult": 5339, "uration": 5340, "Ġbroken": 5341, "Let": 5342, "lets": 5343, "Ġfired": 5344, "Ġton": 5345, "Ġflow": 5346, "Ġdomin": 5347, "ĠGal": 5348, "porary": 5349, "eder": 5350, "LE": 5351, "Ġshall": 5352, "Ġreserv": 5353, "Up": 5354, "Ġtroops": 5355, "ION": 5356, "ĠThose": 5357, "Ġhyp": 5358, "Ġnar": 5359, "terday": 5360, "Ġpieces": 5361, "ĠChief": 5362, "Ġprepared": 5363, "ĠMass": 5364, "ĠCath": 5365, "Ġrapid": 5366, "gl": 5367, "orage": 5368, "ĠJo": 5369, "Ġlocated": 5370, "ĠSocial": 5371, "Ġbaby": 5372, "----------------": 5373, "Ġconclus": 5374, "Ġbringing": 5375, "anche": 5376, "ĠProt": 5377, "Ġprove": 5378, "Ġspecifically": 5379, "ĠAny": 5380, "Ġpotentially": 5381, "Ġsector": 5382, "Ġrandom": 5383, "Ġjail": 5384, "OW": 5385, "Ġselling": 5386, "Ġgovernments": 5387, "ĠOnce": 5388, "Ġscr": 5389, "Ab": 5390, "Ġequal": 5391, "class": 5392, "war": 5393, "Ġfaster": 5394, "Ġheav": 5395, "ĠSpr": 5396, "Ġboost": 5397, "useum": 5398, "vey": 5399, "Ġclin": 5400, "Ġproposal": 5401, "oty": 5402, "Ġfactors": 5403, "Ġplenty": 5404, "TH": 5405, "Ġequipment": 5406, "Ġcouncil": 5407, "Ġera": 5408, "Ġinfrastructure": 5409, "Do": 5410, "Ġstress": 5411, "phas": 5412, "Ġstars": 5413, "ĠJournal": 5414, "ĠRub": 5415, "endment": 5416, "ĠVirginia": 5417, "Ġbreat": 5418, "Ġprosecut": 5419, "Ġvoted": 5420, "Ġoffering": 5421, "Ġcarbon": 5422, "inent": 5423, "Ġexpressed": 5424, "Ġvulner": 5425, "Ġcombat": 5426, "ĠParis": 5427, "Ġbroke": 5428, "()": 5429, "ureau": 5430, "Ġclot": 5431, "ours": 5432, "Ġruling": 5433, "ĠFederal": 5434, "Ġretail": 5435, "ĠGuard": 5436, "Ġrefused": 5437, "Ġdram": 5438, "ĠDan": 5439, "Ġelected": 5440, "ĠOpen": 5441, "ĠRiver": 5442, "Every": 5443, "Ġsecure": 5444, "cean": 5445, "Ġseasons": 5446, "Ġconducted": 5447, ",'": 5448, "ht": 5449, "Ġchallenges": 5450, "Ġremove": 5451, "isher": 5452, "ĠSant": 5453, "Ġmethods": 5454, "Ġweapon": 5455, "noon": 5456, "Ġpointed": 5457, "ĠIsland": 5458, "Ġmaster": 5459, "Ġremained": 5460, "ĠAustralian": 5461, "Ġprime": 5462, "ENT": 5463, "Ġtrig": 5464, "Ġpositions": 5465, "ĠCru": 5466, "Ġdin": 5467, "ĠMel": 5468, "Ġcriticism": 5469, "ipping": 5470, "First": 5471, "ocking": 5472, "ĠMedic": 5473, "ĠPlease": 5474, "rog": 5475, "onom": 5476, "IG": 5477, "Ġsale": 5478, "olved": 5479, "ĠFe": 5480, "Ġcultural": 5481, "that": 5482, "Ġweren": 5483, "Ġsignificantly": 5484, "Ġbrow": 5485, "etic": 5486, "Ġoriginally": 5487, "rie": 5488, "ĠDuring": 5489, "Ġaffected": 5490, "Ġappearance": 5491, "Ġcas": 5492, "Ġtourn": 5493, "Ġfacing": 5494, "Ġgreatest": 5495, "Ġfinish": 5496, "ĠLee": 5497, "Ġstret": 5498, "yr": 5499, "Ġyouth": 5500, "Ġtele": 5501, "ĠWho": 5502, "ĠCur": 5503, "Ġpercentage": 5504, "ĠPhoto": 5505, "col": 5506, "Ġdetermined": 5507, "Ġsigns": 5508, "Ġinvolve": 5509, "95": 5510, "cel": 5511, "Ð¸": 5512, "64": 5513, "Ġthank": 5514, "Ġbought": 5515, "Ġ500": 5516, "lyn": 5517, "ĠSing": 5518, "standing": 5519, "Ġchemical": 5520, "ashion": 5521, "Ġshape": 5522, "Ġvir": 5523, "Ġregime": 5524, "Ġgrew": 5525, "pired": 5526, "Ġremaining": 5527, "ĠSteve": 5528, "lymp": 5529, "Ġminimum": 5530, "ĠSaud": 5531, "reens": 5532, "Ġindeed": 5533, "Ġdream": 5534, "rier": 5535, "Since": 5536, "Ġmarg": 5537, "Sp": 5538, "ĠBoth": 5539, ">>": 5540, "Ġmode": 5541, "Ġherself": 5542, "Ġvoting": 5543, "ĠColor": 5544, "Ġobviously": 5545, "ĠForce": 5546, "Ġreduced": 5547, "ordin": 5548, "ĠNov": 5549, "Ġwood": 5550, "ĠRem": 5551, "Ġrecorded": 5552, "Ġargued": 5553, "Ġ1990": 5554, "Ġrevenue": 5555, "Ġtact": 5556, "ĠRo": 5557, "Ġwearing": 5558, "aling": 5559, "ighters": 5560, "Ġleads": 5561, "edia": 5562, "Ġhun": 5563, "Ġpoliticians": 5564, "Ġplus": 5565, "Ġcontrast": 5566, "Ġswitch": 5567, "Ġhandle": 5568, "Ġpurchase": 5569, "Ġthr": 5570, "Ġsubs": 5571, "Ġconcent": 5572, "Ġproced": 5573, "ÑĤ": 5574, "Ġagent": 5575, "arp": 5576, "ĠWilliams": 5577, "Ġappreci": 5578, "Ġexperienced": 5579, "Ġhurt": 5580, "top": 5581, "Ġexcited": 5582, "Ġvideos": 5583, "Ġhttps": 5584, "cohol": 5585, "Ġsupporting": 5586, "DP": 5587, "ĠHaw": 5588, "mm": 5589, "ownt": 5590, "ĠFree": 5591, "Ġsurprising": 5592, "Ġminute": 5593, "odd": 5594, "Ġexplos": 5595, "Ġbelong": 5596, "Ġconsumers": 5597, "Ġidentify": 5598, "Ġconsidering": 5599, "ĠPac": 5600, "ĠConserv": 5601, "ller": 5602, "apter": 5603, "Ġaircraft": 5604, "Ġrent": 5605, "Ġaid": 5606, "CL": 5607, "Ġpulled": 5608, "gment": 5609, "Ġbasically": 5610, "Ġdifferences": 5611, "ogue": 5612, "ĠBook": 5613, "Ġglass": 5614, "Ġafternoon": 5615, "Ġshift": 5616, "Ġdiss": 5617, "ĠRad": 5618, "Ġdepart": 5619, "Ġends": 5620, "essions": 5621, "Ġturning": 5622, "Ġbound": 5623, "Ġfilms": 5624, "Ġspring": 5625, "Ġprospect": 5626, "ruption": 5627, "ket": 5628, "ĠCharl": 5629, "hab": 5630, "Ġmort": 5631, "05": 5632, "life": 5633, "Ġtreated": 5634, "Ġaccident": 5635, ",[": 5636, "01": 5637, "Ġmotiv": 5638, "Ġlisten": 5639, "Ġseat": 5640, "ĠPower": 5641, "uts": 5642, "Ġcombined": 5643, "Ġconstruct": 5644, "Ind": 5645, "Ġseriously": 5646, "Ġprivacy": 5647, "apping": 5648, "Ġevening": 5649, "hered": 5650, "hy": 5651, "Ġopportunities": 5652, "asp": 5653, "Ġstruggle": 5654, "Ġ195": 5655, "Ġpanel": 5656, "Ġenemy": 5657, "Ġlots": 5658, "Ġcompleted": 5659, "ĠDaily": 5660, "Ġvisual": 5661, "His": 5662, "Phone": 5663, "pet": 5664, "Ġtalked": 5665, "Ġcart": 5666, "Ġhopes": 5667, "oral": 5668, "Ġpassing": 5669, "Ġid": 5670, "Ġapps": 5671, "osite": 5672, "PD": 5673, "Ġcalcul": 5674, "Another": 5675, "Ġwidely": 5676, "ensions": 5677, "Ġemergency": 5678, "ĠHol": 5679, "ĠShow": 5680, "Ġsuit": 5681, "Ġelement": 5682, "amm": 5683, "Ġast": 5684, "anged": 5685, "SS": 5686, "aled": 5687, "ucks": 5688, "Ġpowers": 5689, "ato": 5690, "ĠRel": 5691, "ĠBBC": 5692, "ĠOlymp": 5693, "Ġburn": 5694, "TV": 5695, "Ġdiscl": 5696, "Pe": 5697, "Ġplants": 5698, "Ġflat": 5699, "ĠSpace": 5700, "Ġliberal": 5701, "raud": 5702, "obe": 5703, "Ġopposed": 5704, "Well": 5705, "Ġproceed": 5706, "ompl": 5707, "Ġcopyright": 5708, "oking": 5709, "ĠProject": 5710, "Ġadvance": 5711, "Ġfactor": 5712, "Ġdistance": 5713, "Ġ2003": 5714, "ivered": 5715, "Ġdismiss": 5716, "plom": 5717, "Ġattempts": 5718, "Ġtun": 5719, "ĠMatt": 5720, "ĠRoad": 5721, "abilities": 5722, "Am": 5723, "ributed": 5724, "ĠIN": 5725, "Ġtrouble": 5726, "unction": 5727, "Ġhol": 5728, "Ġcollabor": 5729, "Ġdefault": 5730, "sts": 5731, "idel": 5732, "ĠBet": 5733, "Ġzone": 5734, "ĠJackson": 5735, "Ġupgr": 5736, "rawn": 5737, "ita": 5738, "Cont": 5739, "Ġreaction": 5740, "Ġstorm": 5741, "Ġreporters": 5742, "ĠMem": 5743, "Ġfrust": 5744, "PR": 5745, "nell": 5746, "mosp": 5747, "adow": 5748, "Ġwrites": 5749, "mond": 5750, "aints": 5751, "Ġtypically": 5752, "ĠToday": 5753, "lines": 5754, "respond": 5755, "UT": 5756, "Ġpages": 5757, "Ġinstruct": 5758, "ternal": 5759, "eds": 5760, "Ġreference": 5761, "Ġpackage": 5762, "Ġbodies": 5763, "zer": 5764, "Ġmatters": 5765, "free": 5766, "42": 5767, "Ġdenied": 5768, "care": 5769, "edd": 5770, "App": 5771, "Ġquant": 5772, "Ġdisappoint": 5773, "Ġsem": 5774, "Ġexplo": 5775, "ĠNAS": 5776, "Ġoptim": 5777, "ache": 5778, "Ġquiet": 5779, "Ġentertain": 5780, "Ġmal": 5781, "Ġresponded": 5782, "Ġapproved": 5783, "ĠTurkey": 5784, "Ġsatisf": 5785, "aped": 5786, "Ġbroadcast": 5787, "esters": 5788, "Ġinstitutions": 5789, "Ġadvert": 5790, "Ġstands": 5791, "ĠDirector": 5792, "Ġsets": 5793, "estival": 5794, "Ġelimin": 5795, "isters": 5796, "razy": 5797, "Ã¤": 5798, "Rep": 5799, "ĠPenn": 5800, "Ġvalid": 5801, "host": 5802, "Ġrenew": 5803, "ĠOhio": 5804, "elly": 5805, "0000": 5806, "Ġsplit": 5807, "Ġsevere": 5808, "ĠWilliam": 5809, "Ġsac": 5810, "Ġcapable": 5811, "Ġ2001": 5812, "Ġ//": 5813, "Ġpitch": 5814, "abin": 5815, "aniel": 5816, "Ġcaption": 5817, "Ġcloud": 5818, "Ġloved": 5819, "Ġtechnical": 5820, "Ġgiant": 5821, "pass": 5822, "Ġcann": 5823, "Ġtradition": 5824, "rant": 5825, "Ġprompt": 5826, "Ġbull": 5827, "Ġconfident": 5828, "uous": 5829, "Ġconfidence": 5830, "Ġnumerous": 5831, "Ġreportedly": 5832, "ĠMa": 5833, "Ġfaces": 5834, "],": 5835, "writ": 5836, "Ġweather": 5837, "Ġfly": 5838, "Ġtransition": 5839, "rid": 5840, "Ġ36": 5841, "ĠSystem": 5842, "ĠAfghanistan": 5843, "Ġgra": 5844, "ĠSqu": 5845, "Ġcreation": 5846, "De": 5847, "Ġperspective": 5848, "Ġunable": 5849, "Ġforget": 5850, "ĠLabour": 5851, "ĠYet": 5852, "43": 5853, "astern": 5854, "employ": 5855, "oken": 5856, "ĠMedia": 5857, "angers": 5858, "II": 5859, "unte": 5860, "Ġcraft": 5861, "Ġsubstant": 5862, "Ġcooper": 5863, "Ġviolent": 5864, "Ġsuffered": 5865, "ilit": 5866, "Ġcoast": 5867, "Ġmand": 5868, "ampion": 5869, "Ġpictures": 5870, "Ġexperiences": 5871, "Ġapprox": 5872, "abled": 5873, "Ġroute": 5874, "88": 5875, "sex": 5876, "Ġflag": 5877, "Ġadvice": 5878, "ĠAndrew": 5879, "usiness": 5880, "Ġdeclared": 5881, "ĠWal": 5882, "Ġordered": 5883, "ĠHuman": 5884, "razil": 5885, "Ġcrimes": 5886, "Ġcoff": 5887, "Se": 5888, "Ġproud": 5889, "ishes": 5890, "Ġreporting": 5891, "Ġmessages": 5892, "Ġcircumst": 5893, "Ġfindings": 5894, "ĠLin": 5895, "Res": 5896, "Ġeval": 5897, "ulations": 5898, "Ġexcell": 5899, "Over": 5900, "Ġdeclined": 5901, "Ġexplains": 5902, "Ġdelay": 5903, "Ġ\\": 5904, "ĠFollow": 5905, "Ġnewspaper": 5906, "ounded": 5907, "Ġconnected": 5908, "ilty": 5909, "Ġshouldn": 5910, "evin": 5911, "oves": 5912, "Ġongoing": 5913, "can": 5914, "Ġvan": 5915, "dule": 5916, "Ġmovies": 5917, "Ġpicked": 5918, "ionally": 5919, "resents": 5920, "77": 5921, "Ġadmitted": 5922, "Ġdelivered": 5923, "During": 5924, "Ġguns": 5925, "ĠML": 5926, "ĠScot": 5927, "Ġwalking": 5928, "Ġagents": 5929, "called": 5930, "Ġprin": 5931, "tion": 5932, "Ġeditor": 5933, "Ġthoughts": 5934, "Ġmarried": 5935, "ĠTra": 5936, "Ġauth": 5937, "Ġemails": 5938, "Ġappropriate": 5939, "Ġemphas": 5940, "uations": 5941, "Ġedge": 5942, "Ġarchitect": 5943, "ĠGrand": 5944, "Ġleaves": 5945, "Ġupdates": 5946, "Ġaccompl": 5947, "OD": 5948, "Ġgather": 5949, "ĠMuslims": 5950, "Ġforg": 5951, "ansas": 5952, "ĠWood": 5953, "Ġquarterback": 5954, "Ġsession": 5955, "ooth": 5956, "41": 5957, "ĠTechn": 5958, "Ġpool": 5959, "ĠScience": 5960, "cos": 5961, "Ġinjured": 5962, "arn": 5963, "Ġpublicly": 5964, "ellow": 5965, "ĠSov": 5966, "Ġstatements": 5967, "Ġperman": 5968, "Ġlegit": 5969, "arl": 5970, "nergy": 5971, "MA": 5972, "Ġconfirm": 5973, "ĠLake": 5974, "Ġourselves": 5975, "Other": 5976, "Ġrealize": 5977, "Ġrot": 5978, "Ġdrivers": 5979, "ĠAv": 5980, "ĠDou": 5981, "TA": 5982, "mates": 5983, ",âĢĻ": 5984, "Ġarmed": 5985, "essor": 5986, "Ġdial": 5987, "cons": 5988, "Ġlawyer": 5989, "ourney": 5990, "Ġrail": 5991, "Ġreaders": 5992, "reland": 5993, "Ġsad": 5994, "Ġcontains": 5995, "Ġargue": 5996, "ĠRev": 5997, "Ġtalent": 5998, "Ġfilled": 5999, "ĠSum": 6000, "Ġallegations": 6001, "Ġactivists": 6002, "ĠChristmas": 6003, "Ġdynam": 6004, "Ġ1980": 6005, "ĠMichigan": 6006, "date": 6007, "ĠBack": 6008, "ĠRon": 6009, "Ġcrack": 6010, "Ġtransform": 6011, "Tube": 6012, "ĠIll": 6013, "Ġbuildings": 6014, "ĠRead": 6015, "long": 6016, "Ġwear": 6017, "Many": 6018, "Ġterrorist": 6019, "Ġsam": 6020, "Ġtree": 6021, "Ġexercise": 6022, "enda": 6023, "Ġlabel": 6024, "Ġeffectively": 6025, "Oh": 6026, "Ġpractices": 6027, "ala": 6028, "Ġsubsequ": 6029, "ĠJul": 6030, "ĠSher": 6031, "uls": 6032, "Ġflo": 6033, "TS": 6034, "Ġfish": 6035, "ette": 6036, "enture": 6037, "Ġshop": 6038, "Ġexamples": 6039, "ĠHy": 6040, "Ġpatient": 6041, "ĠGen": 6042, "ĠSeattle": 6043, "Ġobjects": 6044, "Ġtech": 6045, "ĠSee": 6046, "Ġsecretary": 6047, "asure": 6048, "Ġrain": 6049, "Ġmissed": 6050, "Ġcauses": 6051, "illy": 6052, "rum": 6053, "Ġdebut": 6054, "ĠRod": 6055, "gia": 6056, "Ġessentially": 6057, "66": 6058, "amin": 6059, "Ġmoral": 6060, "orders": 6061, "ador": 6062, "word": 6063, "acter": 6064, "ĠWork": 6065, "def": 6066, "arters": 6067, "ĠUkraine": 6068, "Ġcentre": 6069, "Follow": 6070, "ĠVict": 6071, "bur": 6072, "ĠStan": 6073, "ĠID": 6074, "icing": 6075, "Ġinjuries": 6076, "ĠPhot": 6077, "Ġmotor": 6078, "ĠiPhone": 6079, "Ġartist": 6080, "Ġclient": 6081, "Ġbond": 6082, "Ġthinks": 6083, "iat": 6084, "orse": 6085, "ouston": 6086, "Ġpure": 6087, "Ġhell": 6088, "Although": 6089, "ĠSaudi": 6090, "Ġfacts": 6091, "Ĥ¬": 6092, "Ġdesire": 6093, "agers": 6094, "aza": 6095, "Ġske": 6096, "orry": 6097, "Ġlinked": 6098, "ÃŃ": 6099, "Ġgovernor": 6100, "Ġmaterials": 6101, "Ġperformed": 6102, "Spe": 6103, "Ġfranch": 6104, "esome": 6105, "Ġsuc": 6106, "Ġphilosoph": 6107, "Ġinitially": 6108, "iest": 6109, "ĠSign": 6110, "Ġnecessarily": 6111, "ĠBat": 6112, "ĠFer": 6113, "Ġexpansion": 6114, "Ġscheduled": 6115, "water": 6116, "ERS": 6117, "Ġwarned": 6118, "Ġdiplom": 6119, "Ġadvanced": 6120, "Ġing": 6121, "Ġexplan": 6122, "Ġvari": 6123, "Ġeverybody": 6124, "Ġjoint": 6125, "Ġdecre": 6126, "Ġresolution": 6127, "Ġincreases": 6128, "enger": 6129, "Yes": 6130, "Ġaccepted": 6131, "Ġincor": 6132, "Ġmyster": 6133, "Ġfaced": 6134, "Ġbare": 6135, "illance": 6136, "ĠMount": 6137, "Ġannouncement": 6138, "Ġfollows": 6139, "Ġnations": 6140, "Ġplayoff": 6141, "ĠLife": 6142, "Ġabandon": 6143, "ĠSecond": 6144, "Ġradical": 6145, "Ġathlet": 6146, "Ġneither": 6147, "Ġyesterday": 6148, "gent": 6149, "Ġdatab": 6150, "Ġnearby": 6151, "Ġdistribution": 6152, "otic": 6153, "Ġapplied": 6154, "irty": 6155, "Ġmagazine": 6156, "Most": 6157, "athan": 6158, "rich": 6159, "Ġmir": 6160, "Ġconsequences": 6161, "Ġdoctor": 6162, "Ġlisted": 6163, "Ġfort": 6164, "uy": 6165, "ĠColumb": 6166, "Ġatmosp": 6167, "American": 6168, "Ġsurprised": 6169, "Ġoffense": 6170, "Qu": 6171, "itors": 6172, "ĠCNN": 6173, "ĠRE": 6174, "Ġspons": 6175, "Ġbegins": 6176, "ĠWeek": 6177, "Ġthreats": 6178, "sembly": 6179, "Ġrepresents": 6180, "ĠJews": 6181, "ĠGM": 6182, "ĠAff": 6183, "Ġenh": 6184, "Ġmoves": 6185, "Ġremark": 6186, "ĠTO": 6187, "Ġpra": 6188, "Ġsongs": 6189, "kay": 6190, "Ġchart": 6191, "Ġbehavi": 6192, "omin": 6193, "Ġride": 6194, "Ġadds": 6195, "Ġwithd": 6196, "Can": 6197, "ÃĤ": 6198, "Ġimproved": 6199, "Ġphen": 6200, "ĠBlue": 6201, "Ġbot": 6202, "Ġwarm": 6203, "Ġaf": 6204, "Ġalcohol": 6205, "rip": 6206, "ĠAT": 6207, "Ġoutput": 6208, "law": 6209, "Ġflood": 6210, "ĠDevelop": 6211, "ĠHen": 6212, "whel": 6213, "edy": 6214, "Ġshots": 6215, "Ġfill": 6216, "ĠVol": 6217, "Ġalt": 6218, "Ġstood": 6219, "Ġbrings": 6220, "Ġpushed": 6221, "Ġguilty": 6222, "ĠRomney": 6223, "ĠKim": 6224, "Ġsubscrib": 6225, "85": 6226, "Ġentry": 6227, "ocratic": 6228, "ĠBrazil": 6229, "Ġdemocracy": 6230, "Ġboys": 6231, "Ġ33": 6232, "Ġrow": 6233, "ĠSwed": 6234, "Ġconfig": 6235, "Ġrestaurant": 6236, "ĠNBA": 6237, "Ġlawsuit": 6238, "ĠDev": 6239, "ĠIreland": 6240, "acle": 6241, "Ġmanufacture": 6242, "Ġreceiving": 6243, "Ġrein": 6244, "ĠBarack": 6245, "Then": 6246, "Ġtrib": 6247, "Ġtotally": 6248, "ĠOnly": 6249, "Ġdiscussed": 6250, "Ġsought": 6251, "Ġrising": 6252, "Ġentered": 6253, "ĠISIS": 6254, "ĠBoard": 6255, "Ġconsistent": 6256, "Ġhistorical": 6257, "twitter": 6258, "ideo": 6259, "Ġstorage": 6260, "Ġcorrespond": 6261, "Ġplane": 6262, "Ġcombination": 6263, "Ġscored": 6264, "Ġinput": 6265, "Ġ300": 6266, "Ġsymbol": 6267, "Ġbright": 6268, "Ġbutton": 6269, "irds": 6270, "Ġsucceed": 6271, "stood": 6272, "Ġcreative": 6273, "Ġinvestors": 6274, "Ġsquare": 6275, "Ġarticles": 6276, "Ġ2002": 6277, "Ġisland": 6278, "mes": 6279, "Ġdeaths": 6280, "Ġfunctions": 6281, "Ġnetworks": 6282, "Ġclasses": 6283, "Ġunlikely": 6284, "alty": 6285, "Ġheads": 6286, "ician": 6287, "Ġboss": 6288, "Ġnative": 6289, "icious": 6290, "Ġlie": 6291, "Ġsav": 6292, "ĠLib": 6293, "Ġroughly": 6294, "Ġconsumer": 6295, "ĠStr": 6296, "ĠWhe": 6297, "ĠWalk": 6298, "ĠPrem": 6299, "fortunately": 6300, "ĠMs": 6301, "Ġstring": 6302, "ĠMaybe": 6303, "Ġheavily": 6304, "ĠAnother": 6305, "Ġfairly": 6306, "Ġtemperature": 6307, "arden": 6308, "Ġkit": 6309, "Ġexistence": 6310, "ĠIts": 6311, "ĠAsia": 6312, "Ġcontest": 6313, "Add": 6314, "Ġplot": 6315, "issions": 6316, "dis": 6317, "ĠCub": 6318, "Ġresident": 6319, "usal": 6320, "Ġtargets": 6321, "ĠBob": 6322, "Ġresc": 6323, "ĠKorean": 6324, "ican": 6325, "duc": 6326, "Ġlock": 6327, "Ġyounger": 6328, "Man": 6329, "',": 6330, "Ġcolleagues": 6331, "PU": 6332, "Ġlibrary": 6333, "Ã¶": 6334, "Ġrally": 6335, "Ġparliament": 6336, "Ġprotests": 6337, "Ġanywhere": 6338, "oked": 6339, "ĠSports": 6340, "ĠSky": 6341, "Ġbike": 6342, "zona": 6343, "Ġbreaking": 6344, "ii": 6345, "Ġgrab": 6346, "Ġsym": 6347, "Ġstores": 6348, "Ġexpression": 6349, "Ġwaste": 6350, "Ġchain": 6351, "Ġblow": 6352, "Ġwarning": 6353, "Ġimportance": 6354, "Ġdefined": 6355, "Ġbuying": 6356, "Ġmanage": 6357, "Ġprohib": 6358, "Ġclassic": 6359, "Ġcere": 6360, "Ġsnow": 6361, "Ġadults": 6362, "Ġillust": 6363, "ĠEach": 6364, "See": 6365, "Ġmarketing": 6366, "Ob": 6367, "Ġlinks": 6368, "Ã³": 6369, "iques": 6370, "Ġshif": 6371, "born": 6372, "andal": 6373, "ĠClub": 6374, "Ġtow": 6375, "ĠHist": 6376, "Ġfraud": 6377, "OC": 6378, "Ġfacility": 6379, "ollywood": 6380, "erences": 6381, "Ġhardware": 6382, "Ġschol": 6383, "Ġallegedly": 6384, "Ġ37": 6385, "Ġregulations": 6386, "pret": 6387, "Ġdoctors": 6388, "Ġbon": 6389, "ĠColorado": 6390, "Ġcurrency": 6391, "Ġhousehold": 6392, "Ġreplaced": 6393, "agan": 6394, "Ġessential": 6395, "opy": 6396, "Ġempt": 6397, "onna": 6398, "ĠRam": 6399, "Ġsomewhat": 6400, "ĠDiv": 6401, "press": 6402, "86": 6403, "Ġnav": 6404, "Ġfavour": 6405, "power": 6406, "Ġpromise": 6407, "ĠDC": 6408, "ĠBoy": 6409, "Ġlaugh": 6410, "ena": 6411, "Pol": 6412, "ĠRights": 6413, "Ġholds": 6414, "Ġopposite": 6415, "ocket": 6416, "Ñģ": 6417, "Ġmoments": 6418, "west": 6419, "Ġhat": 6420, "tering": 6421, "Ġopponent": 6422, "Ġbug": 6423, "ĠFar": 6424, "cho": 6425, "Ġcampus": 6426, "Ġacts": 6427, "Ġrum": 6428, "etroit": 6429, "Ġversions": 6430, "Ġmotion": 6431, "Ġmetal": 6432, "hips": 6433, "Ġevolution": 6434, "ometimes": 6435, "Ġvice": 6436, "anish": 6437, "Ġrelevant": 6438, "Ġsees": 6439, "ĠImage": 6440, "Ġbag": 6441, "Ġindustrial": 6442, "Ġzero": 6443, "IR": 6444, "Ġsick": 6445, "Ġdownt": 6446, "oma": 6447, "Ġclosely": 6448, "ĠAnn": 6449, "hetic": 6450, "Ġemotional": 6451, "chen": 6452, "game": 6453, "IF": 6454, "ĠYouTube": 6455, "ĠYear": 6456, "va": 6457, "Ġfewer": 6458, "Ġdivision": 6459, "olve": 6460, "Ġadm": 6461, "Ġharder": 6462, "Ġcustomer": 6463, "Ġhoping": 6464, "ologist": 6465, "Ġtom": 6466, "ĠBrook": 6467, "Donald": 6468, "En": 6469, "ĠValley": 6470, "Ġhur": 6471, "ĠGra": 6472, "Ġmechanism": 6473, "ittle": 6474, "ml": 6475, "ĠHouston": 6476, "ĠElect": 6477, "inem": 6478, "Ġreturns": 6479, "NC": 6480, "atell": 6481, "Ġvolunte": 6482, "Ġparticipants": 6483, "Ġextent": 6484, "Ġintention": 6485, "po": 6486, "alian": 6487, "esc": 6488, "ellect": 6489, "Ġexcellent": 6490, "ĠSoviet": 6491, "Ġacknowled": 6492, "Ġsyn": 6493, "ulous": 6494, "oming": 6495, "ĠMot": 6496, "Ġbatt": 6497, "ĠGames": 6498, "Ġsquad": 6499, "greg": 6500, "Ġcircumstances": 6501, "pan": 6502, "Ġfashion": 6503, "Ġisol": 6504, "Ã¼": 6505, "otal": 6506, "Ġimmediate": 6507, "ĠEric": 6508, "Ġsuffering": 6509, "ĠWatch": 6510, "str": 6511, "Ġlies": 6512, "Ġtiny": 6513, "Ġauthors": 6514, "Ġ38": 6515, "Ġgrown": 6516, "ĠGar": 6517, "iger": 6518, "efully": 6519, "Ġimmigrants": 6520, "Ãĥ": 6521, "print": 6522, "ora": 6523, "Ġkinds": 6524, "utch": 6525, "Ġ49": 6526, "ĠDie": 6527, "Ġcheap": 6528, "Ġmine": 6529, "Ġdetailed": 6530, "ordan": 6531, "ĠHel": 6532, "name": 6533, "Ġfeatured": 6534, "ĠWik": 6535, "ĠEr": 6536, "ĠSar": 6537, "ayers": 6538, "Ġmeat": 6539, "Ġunus": 6540, "ĠAut": 6541, "Ġcompetitive": 6542, "Ġdescribe": 6543, "Ġformed": 6544, "ĠHome": 6545, "ĠIP": 6546, "friend": 6547, "nic": 6548, "certain": 6549, "Ġcarrying": 6550, "Ġtournament": 6551, "Ġtermin": 6552, "Ġtrick": 6553, "Ġrelationships": 6554, "Ġfundamental": 6555, "kel": 6556, "Ġwave": 6557, "Ġcycle": 6558, "obb": 6559, "Ġcrazy": 6560, "ĠCy": 6561, "Ġsigning": 6562, "ĠWay": 6563, "Ġguide": 6564, "Ġwins": 6565, "ĠCatholic": 6566, "Ġearned": 6567, "08": 6568, "Ġdecline": 6569, "Ġregional": 6570, "nam": 6571, "ensus": 6572, "style": 6573, "Ġembr": 6574, "Ġstrange": 6575, "ĠPalestinian": 6576, "ĠJesus": 6577, "ĠLong": 6578, "Ġancient": 6579, "Ġfrequently": 6580, "06": 6581, "Ġacting": 6582, "ĠPutin": 6583, "Ġmanner": 6584, "Ġefficient": 6585, "rome": 6586, "Ġpushing": 6587, "ĠCIA": 6588, "Ġcomfortable": 6589, "ĠCard": 6590, "Ġpip": 6591, "ORE": 6592, "Per": 6593, "Ġsharing": 6594, "Ġwire": 6595, "Ġskill": 6596, "ĠEconom": 6597, "ockey": 6598, "chers": 6599, "Ġinstru": 6600, "ĠEll": 6601, "Ġowned": 6602, "bar": 6603, "Ġcommitment": 6604, "Ġalongside": 6605, "ĠOF": 6606, "uated": 6607, "anes": 6608, "ĠLord": 6609, "09": 6610, "ĠDavis": 6611, "rison": 6612, "Ġcontroversial": 6613, "Ġartists": 6614, "Ġreferred": 6615, "weight": 6616, "Ġegg": 6617, "Ġmouth": 6618, "Ġrepeatedly": 6619, "Ġ48": 6620, "ĠTop": 6621, "ï¿": 6622, "Ġ34": 6623, "FP": 6624, "awa": 6625, "Ġattempted": 6626, "Ġfemin": 6627, "umber": 6628, "Ġupdated": 6629, "foot": 6630, "Ġcert": 6631, "ua": 6632, "Ġpregn": 6633, "ĠOld": 6634, "Ġschedule": 6635, "vin": 6636, "xy": 6637, "ĠPS": 6638, "amily": 6639, "adel": 6640, "Ġdedicated": 6641, "Ð½": 6642, "ĠAL": 6643, "Ġsentence": 6644, "Ġupcoming": 6645, "ĠRight": 6646, "ĠNY": 6647, "ĠDown": 6648, "ĠDi": 6649, "Ġcolumn": 6650, "hus": 6651, "Ġdepth": 6652, "Ġpled": 6653, "Ġvirtual": 6654, "uable": 6655, "Ġjourney": 6656, "Ġstruck": 6657, "ÑĢ": 6658, "Ġdesk": 6659, "Ġstudio": 6660, "Ġrealized": 6661, "ĠEnergy": 6662, "Despite": 6663, "ceived": 6664, "%)": 6665, "ographic": 6666, "ko": 6667, "ugh": 6668, "Ġmedic": 6669, "DS": 6670, "Ġserving": 6671, "iami": 6672, "Ġwalked": 6673, "rive": 6674, "iveness": 6675, "Ġking": 6676, "Ġring": 6677, "Ġreput": 6678, "you": 6679, "Ġurban": 6680, "phy": 6681, "07": 6682, "ĠCle": 6683, "ĠCharles": 6684, "ĠWild": 6685, "Ġtargeted": 6686, "Ġchannel": 6687, "Ġassets": 6688, "luding": 6689, "Ġtort": 6690, "Ġinspired": 6691, "Ġhotel": 6692, "ĠArizona": 6693, "Ġposts": 6694, "Ġnewslet": 6695, "Like": 6696, "Two": 6697, "ĠSupp": 6698, "Ġuniverse": 6699, "Ġagenda": 6700, "Ġcausing": 6701, "Ġwatched": 6702, "Ġsuicide": 6703, "Ġstream": 6704, "Ġoverwhel": 6705, "ĠPy": 6706, "Ġusual": 6707, "Ġsurveillance": 6708, "ĠMen": 6709, "Ġintent": 6710, "sole": 6711, "People": 6712, "Ġliqu": 6713, "Ġsister": 6714, "Ġopponents": 6715, "Ġchairman": 6716, "Ġdu": 6717, "ĠWars": 6718, "ĠCruz": 6719, "Ġmainstream": 6720, "gor": 6721, "bel": 6722, "Ġlatter": 6723, "Ġhall": 6724, "Ġsurrounding": 6725, "Ġfolks": 6726, "Ġknowing": 6727, "Ġorders": 6728, "ĠInf": 6729, "Ġremote": 6730, "Ġ75": 6731, "Ġsand": 6732, "Ġliterally": 6733, "ĠJava": 6734, "Ġobserved": 6735, "ĠAgain": 6736, "Ġsubsid": 6737, "Fr": 6738, "ĠDefense": 6739, "Ġinfl": 6740, "Ġapproval": 6741, "acc": 6742, "ĠVan": 6743, "iments": 6744, "Ġbasket": 6745, "rence": 6746, "burg": 6747, "Ġteachers": 6748, "azi": 6749, "avor": 6750, "izz": 6751, "Ġwinter": 6752, "iciency": 6753, "alle": 6754, "Ġexciting": 6755, "aze": 6756, "iro": 6757, "aylor": 6758, "ĠTal": 6759, "Ġformat": 6760, "boy": 6761, "Ġcongress": 6762, "Ġprotected": 6763, "ati": 6764, "Ġnoticed": 6765, "Ġsimpl": 6766, "Ġdealing": 6767, "ĠYoung": 6768, "rations": 6769, "ĠChild": 6770, "Ġprecise": 6771, "67": 6772, "xual": 6773, "Ġdeeply": 6774, "ipl": 6775, "Ġcommunication": 6776, "Ġgang": 6777, "Ġsending": 6778, "Ġforth": 6779, "ĠJr": 6780, "Ġfasc": 6781, "Ġbattery": 6782, "Ġwal": 6783, "mun": 6784, "Ġsky": 6785, "Ġnarr": 6786, "Ġfixed": 6787, "post": 6788, "abis": 6789, "Ġaside": 6790, "Ġrequirements": 6791, "Int": 6792, "Ġproperties": 6793, "rors": 6794, "Ġalive": 6795, "Ġnarrow": 6796, "Ġwake": 6797, "allas": 6798, "Ġpassion": 6799, "ĠArch": 6800, "onymous": 6801, "Ġeating": 6802, "Or": 6803, "ensity": 6804, "Ġmistake": 6805, "woman": 6806, "Ġexplore": 6807, "Ġcoffee": 6808, "ĠPan": 6809, "Ġ1970": 6810, "Ġrape": 6811, "Ġvolume": 6812, "Ġpromised": 6813, "Ġdiet": 6814, "acking": 6815, "Ġrisks": 6816, "Ġexhib": 6817, "ĠPolit": 6818, "ĠFort": 6819, "Ġsweet": 6820, "May": 6821, "âĢĻ.": 6822, "ĠEnter": 6823, "ĠWat": 6824, "Ġneut": 6825, "Ġinvolving": 6826, "Ġwage": 6827, "Ġselection": 6828, "ĠMax": 6829, "Ġtested": 6830, "ether": 6831, "Ġflu": 6832, "ulture": 6833, "Ġdefeat": 6834, "Ġnorthern": 6835, "Ġreward": 6836, "Ġwelcome": 6837, "ĠCast": 6838, "Ġextended": 6839, "Ġputs": 6840, "Ġterritory": 6841, "Ġphenomen": 6842, "Ġunemploy": 6843, "Ġrefugees": 6844, "Ġsample": 6845, "Ġheight": 6846, "Ġapproximately": 6847, "ĠKevin": 6848, "59": 6849, "Ġblame": 6850, "ĠBrad": 6851, "Ġanyway": 6852, "ums": 6853, "ĠDetroit": 6854, "Ġdestroyed": 6855, "obile": 6856, "ta": 6857, "Ġimpressive": 6858, "ĠStephen": 6859, "asks": 6860, "Ġgod": 6861, "Ġproof": 6862, "Ġgap": 6863, "Ġdry": 6864, "ï¿½": 6865, "Ġcrash": 6866, "Ġunknown": 6867, "Ġlocations": 6868, "04": 6869, "igg": 6870, "Ġselected": 6871, "apse": 6872, "Ġwest": 6873, "anges": 6874, "gery": 6875, "stone": 6876, "ĠFil": 6877, "Ġattacked": 6878, "Ġmaximum": 6879, "ĠMiller": 6880, "ĠWilson": 6881, "ĠTit": 6882, "Ġpromote": 6883, "Ġshel": 6884, "aser": 6885, "Ġmerely": 6886, "Ġfranchise": 6887, "arry": 6888, "lv": 6889, "Ġrequests": 6890, "Ġsho": 6891, "Ġretire": 6892, "Ġsuddenly": 6893, "Ġslowly": 6894, "Ġprotesters": 6895, "Ġdisag": 6896, "dro": 6897, "Ġteacher": 6898, "ixt": 6899, "Ġtypical": 6900, "ogan": 6901, "ĠWomen": 6902, "ĠIns": 6903, "ingu": 6904, "Ġconver": 6905, "list": 6906, "Ġchose": 6907, "ĠCamer": 6908, "ĠClass": 6909, "ĠLu": 6910, "Ġmatches": 6911, "Ġprote": 6912, "Ġlicense": 6913, "Ġproperly": 6914, "Ġassume": 6915, "oration": 6916, "Ġdiscover": 6917, "03": 6918, "Ġwid": 6919, "ĠPR": 6920, "ĠMic": 6921, "Rel": 6922, "Ġworried": 6923, "Ġmoder": 6924, "fire": 6925, "Ġabortion": 6926, "owered": 6927, "Ġallies": 6928, "ao": 6929, "Ġoblig": 6930, "Ġterrorism": 6931, "02": 6932, "Ġsupports": 6933, "ĠÎ": 6934, "uilding": 6935, "ÃĥÃĤ": 6936, "inson": 6937, "verty": 6938, "Ġarguments": 6939, "Ġadapt": 6940, "Ġtheme": 6941, "Ġconfront": 6942, "Ġfacilities": 6943, "Ġsustain": 6944, "gender": 6945, "Ġeast": 6946, "Ġpal": 6947, "Ġrecognize": 6948, "igure": 6949, "Ġfuck": 6950, "ÃĥÃĤÃĥÃĤ": 6951, "lies": 6952, "Ġequival": 6953, "mo": 6954, "Ġobtained": 6955, "Ġpoverty": 6956, "Ġrub": 6957, "ĠItaly": 6958, "Ġnomine": 6959, "Ġdeals": 6960, "Ġfees": 6961, "alo": 6962, "itarian": 6963, "osis": 6964, "ĠHollywood": 6965, "Ġunderstood": 6966, "Ġcontrolled": 6967, "VER": 6968, "ĠBest": 6969, "ĠDam": 6970, "Ġtopic": 6971, "Ġcritics": 6972, "ĠSociety": 6973, "ĠAgency": 6974, "axy": 6975, "ĠFord": 6976, "Ġsole": 6977, "ĠJersey": 6978, "arity": 6979, "Ġvillage": 6980, "Ġdiagn": 6981, "ĠAdminist": 6982, "raid": 6983, "68": 6984, "Ġlikes": 6985, "celer": 6986, "han": 6987, "sters": 6988, "ĠFour": 6989, "Ġevil": 6990, "Te": 6991, "Ġpunish": 6992, "Ġdress": 6993, "cript": 6994, "Ġped": 6995, "ĠGeorgia": 6996, "Ġbunch": 6997, "ĠCompany": 6998, "Ġjournalists": 6999, "John": 7000, "Ġexposed": 7001, "Ġregions": 7002, "redit": 7003, "ocation": 7004, "Ġscheme": 7005, "Ġcommunications": 7006, "Ġtransp": 7007, "Ġstim": 7008, "Ġlimits": 7009, "Ġsomehow": 7010, "Ġstrongly": 7011, "Ġhonor": 7012, "Ġdrag": 7013, "Ġresistance": 7014, "lls": 7015, "aire": 7016, "aug": 7017, "Ġchampion": 7018, "ĠLabor": 7019, "Ġconstant": 7020, "Ġphase": 7021, "ĠNASA": 7022, "asts": 7023, "ĠCarl": 7024, "pool": 7025, "Ġprofit": 7026, "Ġtruck": 7027, "Ġcondem": 7028, "Ġescape": 7029, "Ġpersonally": 7030, "ĠNight": 7031, "ĠDun": 7032, "rimination": 7033, "ĠLand": 7034, "Ġbid": 7035, "ĠNHL": 7036, "ĠStand": 7037, "Ġvacc": 7038, "Ġdeck": 7039, "CA": 7040, "nesota": 7041, "iform": 7042, "Ġfalling": 7043, "GBT": 7044, "ĠNetwork": 7045, "Ġsomewhere": 7046, "ems": 7047, "cers": 7048, "Ġemployee": 7049, "Ġharass": 7050, "ads": 7051, "Ġbear": 7052, "ĠCD": 7053, "iner": 7054, "Ġcomparison": 7055, "orted": 7056, "ciples": 7057, "Ġpolls": 7058, "owa": 7059, "Ġinqu": 7060, "ĠLove": 7061, "pected": 7062, "Ġsouthern": 7063, "oric": 7064, "Ġdecent": 7065, "cow": 7066, "ĠSpanish": 7067, "Ġencourage": 7068, "Ġemissions": 7069, "Ġ39": 7070, "ĠKn": 7071, "ĠView": 7072, "enders": 7073, "Ġempty": 7074, "ĠMiami": 7075, "Ġhits": 7076, "oster": 7077, "ĠCam": 7078, "Ġdefinition": 7079, "57": 7080, "Ġpic": 7081, "wan": 7082, "Ġdirected": 7083, "pes": 7084, "Ġflex": 7085, "zens": 7086, "ĠOk": 7087, "Ġmeetings": 7088, "ĠEnd": 7089, "ĠBell": 7090, "Ð¾Ð": 7091, "Ġcomprom": 7092, "Ġwinner": 7093, "intend": 7094, "icken": 7095, "Ġgotten": 7096, "ĠDaniel": 7097, "ĠTurk": 7098, "Ġelectricity": 7099, "aun": 7100, "Ġchosen": 7101, "Ġofficially": 7102, "Ġbench": 7103, "Ġstretch": 7104, "Ġdatabase": 7105, "Com": 7106, "ĠDespite": 7107, "Ġintellect": 7108, "Ġspin": 7109, "igation": 7110, "Ġstronger": 7111, "Ġdeleg": 7112, "Ġpurposes": 7113, "ĠDNA": 7114, "Ġcutting": 7115, "ĠTurn": 7116, "Ġfold": 7117, "rary": 7118, "Ġextensive": 7119, "Ġamounts": 7120, "Ġdesper": 7121, "Ġtrees": 7122, "Ġanx": 7123, "Ġideal": 7124, "ĠAsian": 7125, "Ġthread": 7126, "Ġfifth": 7127, "ĪĴ": 7128, "UR": 7129, "Ġgoods": 7130, "Ġcolon": 7131, "Ġdeveloper": 7132, "Ġclaiming": 7133, "unning": 7134, "Any": 7135, "Ġretain": 7136, "Ġsoul": 7137, "Ġcaptured": 7138, "ĠThough": 7139, "Ġfinds": 7140, "Ġdriven": 7141, "Ġpayments": 7142, "asters": 7143, "ĠJordan": 7144, "ras": 7145, "CS": 7146, "Ġties": 7147, "Ġreasonable": 7148, "Ġdogs": 7149, "âĸ": 7150, "Ġsomebody": 7151, "Ġending": 7152, "ĠNations": 7153, "Ġchoices": 7154, "Ġble": 7155, "Ġseats": 7156, "ĠServices": 7157, "ĠThank": 7158, "Ġpod": 7159, "Ġengage": 7160, "Ġdrawn": 7161, "Ġsight": 7162, "CE": 7163, "Ġparam": 7164, "ĠDar": 7165, "Ġthreatened": 7166, "Ġruled": 7167, "eping": 7168, "ĠAttorney": 7169, "ĠIrish": 7170, "ura": 7171, "ĠSea": 7172, "Ġtrading": 7173, "owed": 7174, "Ġprimarily": 7175, "Ġaspects": 7176, "Ġfighters": 7177, "ML": 7178, "Ġanswers": 7179, "Ġperfectly": 7180, "irms": 7181, "ĠAcadem": 7182, "Ġincl": 7183, "Ġrival": 7184, "Ġparking": 7185, "Ġrejected": 7186, "ĠGall": 7187, "Ġconstantly": 7188, "ĠHun": 7189, "fast": 7190, "Ġpayment": 7191, "ĠCat": 7192, "Ġdistinct": 7193, "Ġflying": 7194, "Ġrig": 7195, "Ġtechnologies": 7196, "ĠReal": 7197, "</": 7198, "Ġcomponents": 7199, "Police": 7200, "Ġadmit": 7201, "ĠScotland": 7202, "Ġelsewhere": 7203, "ĠDark": 7204, "Ġconstit": 7205, "Ġtur": 7206, "Ġanymore": 7207, "lder": 7208, "Ġicon": 7209, "Ġfields": 7210, "Ġestimates": 7211, "EW": 7212, "sea": 7213, "Ġsolutions": 7214, "Ġresulting": 7215, "78": 7216, "ĠBru": 7217, "Ġawesome": 7218, "Ġencoun": 7219, "Ġprovince": 7220, "mod": 7221, "Ġworldwide": 7222, "Ġactor": 7223, "Ġregularly": 7224, "ĠMoore": 7225, "Ġcourts": 7226, "Ġnarrative": 7227, "ĠUt": 7228, "Once": 7229, "Ġboot": 7230, "Ġenemies": 7231, "Ġmixed": 7232, "regon": 7233, "ĠOS": 7234, "ĠDisney": 7235, "sm": 7236, "icer": 7237, "Ġhouses": 7238, "Ġnobody": 7239, "ĠSk": 7240, "inations": 7241, "Ġcontrols": 7242, "ĠWater": 7243, "Ġletters": 7244, "ez": 7245, "apes": 7246, "agram": 7247, "iana": 7248, "imp": 7249, "Ġ42": 7250, "Ġmurd": 7251, "Ġmayor": 7252, "Ġloan": 7253, "Ġoutcome": 7254, "ĠMS": 7255, "Ġcontem": 7256, "sell": 7257, "Sec": 7258, "vy": 7259, "ship": 7260, "ĠLight": 7261, "onic": 7262, "isan": 7263, "Ġapartment": 7264, "ĠSteven": 7265, "Ġcoalition": 7266, "Ġcontributed": 7267, "ĠBas": 7268, "Ġtank": 7269, "Ġconcluded": 7270, "ĠAdam": 7271, "Ġexists": 7272, "ĠTw": 7273, "Ġfounder": 7274, "ĠBrian": 7275, "earing": 7276, "ĠLew": 7277, "Ġatmosphere": 7278, "Ġprofile": 7279, "Ġbrew": 7280, "ĠId": 7281, "Ġsituations": 7282, "ĠChampionship": 7283, "ĠAuthor": 7284, "rates": 7285, "Ġincredible": 7286, "ĠConstitution": 7287, "Ġsignal": 7288, "otes": 7289, "ĠRog": 7290, "Ġaccurate": 7291, "300": 7292, "ĠVictor": 7293, "otten": 7294, "Ġunp": 7295, "ĠWhere": 7296, "ker": 7297, "ĠSouthern": 7298, ".\"[": 7299, "Ġemployment": 7300, "Ġclients": 7301, "Dr": 7302, "Ġkeeps": 7303, "Ġinformed": 7304, "Ġcontinuing": 7305, "inity": 7306, "Ġbaseball": 7307, "Ġgenerate": 7308, "Ġticket": 7309, "Ġconven": 7310, "Also": 7311, "ĠConf": 7312, "Ġweird": 7313, "Ġtied": 7314, "lock": 7315, "adelph": 7316, "Ġcategory": 7317, "Ġinfect": 7318, "ilarly": 7319, "acked": 7320, "Ġangry": 7321, "ĠOrgan": 7322, "Ġroutine": 7323, "aron": 7324, "Ġkil": 7325, "Ġraising": 7326, "ifer": 7327, "Ġmachines": 7328, "Ġregistered": 7329, "Ġproved": 7330, "there": 7331, "Ġdemands": 7332, "Ġgaming": 7333, "ĠItalian": 7334, "Ġincredibly": 7335, "Ġcrucial": 7336, "Ġstuck": 7337, "ĠCivil": 7338, "ĠDallas": 7339, "cr": 7340, "Ġterrible": 7341, "56": 7342, "MP": 7343, "Ġfeedback": 7344, "Ġupper": 7345, "Ġplastic": 7346, "Ġimper": 7347, "Ġnewly": 7348, "ĠJoseph": 7349, "Ġconsumption": 7350, "Ġdozen": 7351, "Ġenthus": 7352, "Ġestate": 7353, "ali": 7354, "rage": 7355, "Ġinnoc": 7356, "Ġmanip": 7357, "ĠTem": 7358, "Ġconscious": 7359, "Ġbills": 7360, "ĠCross": 7361, "ĠSpain": 7362, "ifications": 7363, "Today": 7364, "Ġwriters": 7365, "Ġexcess": 7366, "inding": 7367, "Ġaggressive": 7368, "Ġreporter": 7369, "Ġcompens": 7370, "Ġreturning": 7371, "Ġstead": 7372, "Ġprogramming": 7373, "ĠThanks": 7374, "Ġrepresented": 7375, "Ġconclusion": 7376, "98": 7377, "Ġrus": 7378, "ĠBowl": 7379, "ĠAR": 7380, "MS": 7381, "Ġorigin": 7382, "Ġassistant": 7383, "adelphia": 7384, "Ġroster": 7385, "ĠMinnesota": 7386, "Ġorganized": 7387, "ria": 7388, "Ġpenalty": 7389, "lers": 7390, "Ġdrinking": 7391, "Ġpaint": 7392, "Ġsatell": 7393, "Ġgro": 7394, "ĠProgram": 7395, "Ġcapture": 7396, "ni": 7397, "Ġconspir": 7398, "Ġinterpret": 7399, "Ġexplanation": 7400, "iscal": 7401, "58": 7402, "Ġcounty": 7403, "iscons": 7404, "essed": 7405, "mont": 7406, "ima": 7407, "Ġ%": 7408, "anny": 7409, "gorith": 7410, "emen": 7411, "isconsin": 7412, "Ġassistance": 7413, "ĠRoman": 7414, "Ġcomplaint": 7415, "Ġru": 7416, "Ġnut": 7417, "LA": 7418, "Ġmagic": 7419, "Ġtall": 7420, "ĠOper": 7421, "Ġgranted": 7422, "Ed": 7423, "Because": 7424, "ĠContin": 7425, "star": 7426, "Off": 7427, "ĠParliament": 7428, "Ġcomplicated": 7429, "Ġaudio": 7430, "Ġchances": 7431, "Ġextract": 7432, "rypt": 7433, "ĠGi": 7434, "Ġ1999": 7435, "Ġhel": 7436, "ĠEduc": 7437, "era": 7438, "Ġshares": 7439, "Ġsuccessfully": 7440, "esy": 7441, "........": 7442, "ĠIT": 7443, "zy": 7444, "Ġpilot": 7445, "ĠEp": 7446, "ĠHot": 7447, "Ġmyth": 7448, "Ġrecovery": 7449, "ĠTest": 7450, "Ġtechniques": 7451, "Ġiron": 7452, "ĠCare": 7453, "ĠZeal": 7454, "ĠSC": 7455, "Ġscenes": 7456, "ĠFre": 7457, "Ġveteran": 7458, "ĠWin": 7459, "Ġ($": 7460, "Ġdegrees": 7461, "actions": 7462, "ked": 7463, "Ġsympt": 7464, "thew": 7465, "Ġlawmakers": 7466, "Ġwestern": 7467, "Ġoperate": 7468, "Ġads": 7469, "rating": 7470, "Ġhabit": 7471, "Ġaimed": 7472, "Inst": 7473, "anchester": 7474, "Ġphr": 7475, "rep": 7476, "rete": 7477, "Ġtaste": 7478, "idency": 7479, "Ġengaged": 7480, "Ġprivile": 7481, "Ġ55": 7482, "========": 7483, "Ġrating": 7484, "Ġteaching": 7485, "ĠOs": 7486, "Ġacademic": 7487, "itar": 7488, "Ġtherap": 7489, "Ġpasses": 7490, "Ġdollar": 7491, "hent": 7492, "Ġautomatically": 7493, "ĠPacific": 7494, "Ġmonit": 7495, "Ġblocks": 7496, "abama": 7497, "Ġattended": 7498, "Ġpermanent": 7499, "Ġsurvive": 7500, "uan": 7501, "Ġanticip": 7502, "Ġenable": 7503, "ĠLook": 7504, "Ġextrem": 7505, "ĠForeign": 7506, "chain": 7507, "%.": 7508, "Ġmarked": 7509, "itals": 7510, "Ġhidden": 7511, "Ġaccomp": 7512, "Ġtitles": 7513, "ĠSenator": 7514, "ĠNBC": 7515, "Ġtaught": 7516, "aed": 7517, "ĠLinux": 7518, "Ġbom": 7519, "Ġindex": 7520, "everal": 7521, "Ġelite": 7522, "ibilities": 7523, "Ġlawyers": 7524, "from": 7525, "Ġdepending": 7526, "Ġvaluable": 7527, "Ġinstalled": 7528, "Ġchampionship": 7529, "Ġroot": 7530, "Ġcompre": 7531, "mal": 7532, "ĠBull": 7533, "Ġdowntown": 7534, "Ġequivalent": 7535, "Ġsolve": 7536, "rific": 7537, "Ġduty": 7538, "ĠSpecial": 7539, "ĠBusiness": 7540, "Ġ64": 7541, "Ġpace": 7542, "HS": 7543, "Ġreputation": 7544, "Ġuncertain": 7545, "Ġphones": 7546, "uine": 7547, "Ġoverse": 7548, "bal": 7549, "ĠTaylor": 7550, "Ġpersonnel": 7551, "Ġpin": 7552, "reams": 7553, "aturally": 7554, "Ġsufficient": 7555, "Ġvisited": 7556, "Ġwarming": 7557, "Ġprinciples": 7558, "Ġvulnerable": 7559, "Ġenjoyed": 7560, "Ġfake": 7561, "ĠNick": 7562, "Ġadvis": 7563, "Ġnegotiations": 7564, "inder": 7565, "Ġgenerated": 7566, "Ġexposure": 7567, "Ġrecording": 7568, "Ġcollected": 7569, "Ġregardless": 7570, "Ġdict": 7571, "EA": 7572, "Ġbitcoin": 7573, "Ġelev": 7574, "ãĢ": 7575, "active": 7576, "ĠKelly": 7577, "ĠAnth": 7578, "Ġcup": 7579, "Ġpatterns": 7580, "Getty": 7581, "ĠTake": 7582, "))": 7583, "ĠAvenue": 7584, "ĠJosh": 7585, "bro": 7586, "Ġdisaster": 7587, "Ġcable": 7588, "Ġ65": 7589, "Ġchat": 7590, "Ġworker": 7591, "Ġmainly": 7592, "Ġracial": 7593, "quarters": 7594, "ĠCoast": 7595, "ĠViet": 7596, "month": 7597, "Ġpounds": 7598, "Ġ150": 7599, "ĠCall": 7600, "Ġportion": 7601, "Ġafraid": 7602, "Ġinspir": 7603, "ĠAh": 7604, "Ġdefence": 7605, "Ġbes": 7606, "ĠEastern": 7607, "da": 7608, "ĠTony": 7609, "Ġtracks": 7610, "Ġbusy": 7611, "Ġgrant": 7612, "Ġshit": 7613, "Ġintense": 7614, "ĠSeries": 7615, "ĠLGBT": 7616, "orne": 7617, "ĠStill": 7618, "athy": 7619, "Ġfunny": 7620, "Ġapolog": 7621, "Ġsurgery": 7622, "ĠMoscow": 7623, "mann": 7624, "ĠColl": 7625, "Ġpossession": 7626, "Ġprominent": 7627, "ĠMars": 7628, "Ġcomic": 7629, "ĠGer": 7630, "ashes": 7631, "97": 7632, "ules": 7633, "ĠRay": 7634, "Ġthin": 7635, "Ġengineering": 7636, "Ġtroub": 7637, "ĠKurd": 7638, "this": 7639, "Ġprocesses": 7640, "ĠNation": 7641, "fall": 7642, "ĠKent": 7643, "ĠCome": 7644, "Ġentit": 7645, "ĠâĢĻ": 7646, "Ġunusual": 7647, "raph": 7648, "etary": 7649, "Ġdescribes": 7650, "Col": 7651, "world": 7652, "96": 7653, "Ġresulted": 7654, "Ġemerged": 7655, "Ġtaxp": 7656, "Ġgall": 7657, "iler": 7658, "Ġdim": 7659, "Ġpropag": 7660, "ĠIowa": 7661, "ĠOregon": 7662, "Ġcoordin": 7663, "Ġcorruption": 7664, "Ġstations": 7665, "ĠInvest": 7666, "Ġfought": 7667, "ĠAD": 7668, "Ġbrut": 7669, "Ġextension": 7670, "ref": 7671, "Ġblind": 7672, "Ġadopted": 7673, "prise": 7674, "ye": 7675, "Ġcompete": 7676, "Ġrecru": 7677, "ĠZealand": 7678, "Ġhadn": 7679, "Pr": 7680, "Ġ400": 7681, "Ġmail": 7682, "Ġeverywhere": 7683, "ĠBalt": 7684, "Ġcrypt": 7685, "ĠHom": 7686, "ba": 7687, "Rec": 7688, "Mean": 7689, "herent": 7690, "icate": 7691, "ĠAli": 7692, "Ġcontracts": 7693, "front": 7694, "Ġneuro": 7695, "ĠLo": 7696, "ĠDead": 7697, "ĠRick": 7698, "Ġfeelings": 7699, "Ġfirms": 7700, "idelines": 7701, "âĢĻ,": 7702, "Ġminority": 7703, "Ġspr": 7704, "cles": 7705, "HA": 7706, "Ġadvertising": 7707, "tes": 7708, "Ġrarely": 7709, "Ġdiscipl": 7710, "making": 7711, "ĠNorthern": 7712, "Ġsanctions": 7713, "gun": 7714, "ĠVeg": 7715, "scape": 7716, "ĠPhiladelphia": 7717, "upid": 7718, "Ġcameras": 7719, "Ġexplicit": 7720, "Ġstrict": 7721, "viously": 7722, "log": 7723, "Ġenorm": 7724, "Ġfinance": 7725, "Ġcited": 7726, "ifies": 7727, "ĠBefore": 7728, "Ġshortly": 7729, "UL": 7730, "ĠPolicy": 7731, "olt": 7732, "Ġexpectations": 7733, "Ġimplementation": 7734, "ogen": 7735, "Ġrecip": 7736, "cling": 7737, "ĠGreek": 7738, "Ġthick": 7739, "Ġthousand": 7740, "antic": 7741, "ĠMu": 7742, "Ġloud": 7743, "istent": 7744, "Ġaffili": 7745, "urrent": 7746, "orough": 7747, "ĠNavy": 7748, "Ġinev": 7749, "rell": 7750, "cus": 7751, "Ġphotograph": 7752, "Ġmedium": 7753, "azz": 7754, "ĠWisconsin": 7755, "Ġscenario": 7756, "ĠFood": 7757, "ĠLive": 7758, "Ġsup": 7759, "ilton": 7760, "Ġplug": 7761, "Ġveget": 7762, "Ġho": 7763, "Ġvisible": 7764, "LC": 7765, "Ġlights": 7766, "Ġcreates": 7767, "Ġpriority": 7768, "Ġven": 7769, "Ġbridge": 7770, "eland": 7771, "inking": 7772, "Ġobst": 7773, "Ġagric": 7774, "ATE": 7775, "Ġpermission": 7776, "ĠFoot": 7777, "Ġalgorith": 7778, "izon": 7779, "Co": 7780, "elect": 7781, "Ġparticipate": 7782, "aska": 7783, "Ġwing": 7784, "who": 7785, "asion": 7786, "Ġbrowser": 7787, "ĠGlobal": 7788, "Ġtag": 7789, "ĠOl": 7790, "ĠHas": 7791, "Ġmel": 7792, "Ġacceler": 7793, "Ġdozens": 7794, "ĠKingdom": 7795, "Ġhistoric": 7796, "Ġcomputers": 7797, "Ġlaid": 7798, "Ġbasketball": 7799, "Ġlosses": 7800, "text": 7801, "ĠSaf": 7802, "ĠAsh": 7803, "76": 7804, "ogether": 7805, "Ġunw": 7806, "::": 7807, "Ġtor": 7808, "ĠAmendment": 7809, "Mar": 7810, "Ġstrikes": 7811, "Ġprinciple": 7812, "ĠDevelopment": 7813, "Ġformal": 7814, "EP": 7815, "igen": 7816, "54": 7817, "Ġscoring": 7818, "obs": 7819, "athered": 7820, "Ġ44": 7821, "Ġcounsel": 7822, "found": 7823, "++": 7824, "Ġshock": 7825, "Ġwonderful": 7826, "ĠSP": 7827, "Ġbehalf": 7828, "abs": 7829, "Ġuncom": 7830, "profit": 7831, "52": 7832, "enth": 7833, "Ġinterface": 7834, "Ġestablishment": 7835, "Ġtoler": 7836, "ĠHenry": 7837, "ĠGreg": 7838, "amber": 7839, "car": 7840, "ĠMajor": 7841, "ĠThus": 7842, "Us": 7843, "Ġgained": 7844, "Ġfee": 7845, "lete": 7846, "she": 7847, "Ġfounded": 7848, "etime": 7849, "Ġfoundation": 7850, "jo": 7851, "51": 7852, "ĠESP": 7853, "ilipp": 7854, "Ġclubs": 7855, "Ġcannabis": 7856, "Ġju": 7857, "Ġairport": 7858, "ĠKey": 7859, "ystem": 7860, "Ġborrow": 7861, "olis": 7862, "weet": 7863, "BO": 7864, "Ġmanufacturing": 7865, "Ġrely": 7866, "ĠHit": 7867, "aus": 7868, "ĠPay": 7869, "ĠAlabama": 7870, "Ġgenuine": 7871, "ĠRoyal": 7872, "rators": 7873, "Before": 7874, "uer": 7875, "Ġcomponent": 7876, "Ġridic": 7877, "osexual": 7878, "Ġwheel": 7879, "rative": 7880, "ĠOak": 7881, "Ġjournalist": 7882, "Ġrelief": 7883, "ĠSn": 7884, "Ġsaved": 7885, "Ġhole": 7886, "Ġyield": 7887, "Ġheaded": 7888, "Ġcyber": 7889, "Ne": 7890, "ĠMoh": 7891, "ependent": 7892, "Ġgift": 7893, "bell": 7894, "Ġfault": 7895, "Ġwithdraw": 7896, "Ġindicate": 7897, "Ġdrawing": 7898, "Ġuniform": 7899, "umer": 7900, "ĠRand": 7901, "ĠVis": 7902, "arlier": 7903, "Ġstable": 7904, "Ġships": 7905, "Ġ->": 7906, "Ġbanned": 7907, "Ġmagn": 7908, "ĠMid": 7909, "Ġfootage": 7910, "Meanwhile": 7911, "rous": 7912, "Ġdoors": 7913, "lan": 7914, "Ġrecognized": 7915, "Ġ1960": 7916, "Ġcontaining": 7917, "pread": 7918, "ĠFC": 7919, "Ġriver": 7920, "ami": 7921, "Ġstruggling": 7922, "Sub": 7923, "Ġspark": 7924, "ĠAcademy": 7925, "Ġwalls": 7926, "Ġachieved": 7927, "opher": 7928, "ounced": 7929, "Ġneighb": 7930, "aning": 7931, "Ġplate": 7932, "Ġedition": 7933, "ĠHT": 7934, "portion": 7935, "mate": 7936, "Ġmovements": 7937, "Ġdeliber": 7938, "uce": 7939, "teen": 7940, "Post": 7941, "Ġsharp": 7942, "ĠAS": 7943, "ĠSnow": 7944, "ulating": 7945, "ĠThree": 7946, "Ġepisodes": 7947, "Ġneutral": 7948, "ĠPremier": 7949, "ĠRet": 7950, "ĠFund": 7951, "Ġexception": 7952, "etts": 7953, "Ġproducer": 7954, "________________": 7955, "ĠFred": 7956, "Ġdestruction": 7957, "Ġ1998": 7958, "oured": 7959, "Ġbeliefs": 7960, "Ġ47": 7961, "ĠReview": 7962, "Ġlegend": 7963, "Ġpump": 7964, "ĠMcG": 7965, "Ġbacked": 7966, "umin": 7967, "Ġliked": 7968, "Ġhired": 7969, "idespread": 7970, "cription": 7971, "Ġroles": 7972, "Ġlanguages": 7973, "Ġprofession": 7974, "Ġentering": 7975, "osa": 7976, "ĠVR": 7977, "Ġinterviews": 7978, "Ġhang": 7979, "isp": 7980, "ĠKir": 7981, "eman": 7982, "Ġtox": 7983, "Ġphilosophy": 7984, "ĠAdministration": 7985, "Ġarrange": 7986, "oen": 7987, "interest": 7988, "Ġflaw": 7989, "Those": 7990, "ĠNob": 7991, "sylv": 7992, "imore": 7993, "Ġstadium": 7994, "ĠAtlanta": 7995, "ĠJac": 7996, "Ġreduction": 7997, "Ġdinner": 7998, "ca": 7999, "ja": 8000, "Ġbath": 8001, "ĠReport": 8002, "iel": 8003, "uper": 8004, "ĠTurkish": 8005, "400": 8006, "Ġaver": 8007, "Ġfinger": 8008, "ĠNote": 8009, "ĠConference": 8010, "Ġtackle": 8011, "Ġcha": 8012, "burgh": 8013, "Ġgonna": 8014, "ĠDiego": 8015, "ĠPoint": 8016, "Ġcrop": 8017, "ĠCentre": 8018, "Ġfarmers": 8019, "ĠManchester": 8020, "Ġnominee": 8021, "Ġ41": 8022, "53": 8023, "aching": 8024, "ĠJason": 8025, "Ġbarely": 8026, "ATO": 8027, "Ġstructures": 8028, "Ġcontained": 8029, "Ġsynt": 8030, "ĠOtt": 8031, "Ġdelivery": 8032, "Ġconvin": 8033, "%,": 8034, "Ġprocessing": 8035, "Ġdiscrimination": 8036, "Ġincent": 8037, "riers": 8038, "ĠFair": 8039, "erved": 8040, "RS": 8041, "ĠData": 8042, "then": 8043, "ĠArm": 8044, "abinet": 8045, "Ġintellectual": 8046, "ĠRadio": 8047, "amsung": 8048, "Ġ46": 8049, "ĠBry": 8050, "ĠOK": 8051, "ĠField": 8052, "Me": 8053, "ĠDid": 8054, "Ġupset": 8055, "ĠPerhaps": 8056, "ĠMir": 8057, "ĠEducation": 8058, "sylvania": 8059, "away": 8060, "President": 8061, "Ġchallenging": 8062, "Ġproven": 8063, "Ġrestrictions": 8064, "rik": 8065, "Ġforever": 8066, "ho": 8067, "https": 8068, "olen": 8069, "Ġelectronic": 8070, "Ġhitting": 8071, "ĠHay": 8072, "Ġeuro": 8073, "Ġunex": 8074, "Ġreviews": 8075, "ĠFed": 8076, "ĠChristians": 8077, "Ġ43": 8078, "ĠNC": 8079, "Ġconvicted": 8080, "Star": 8081, "Ġillness": 8082, "Ġsmooth": 8083, "page": 8084, "Dav": 8085, "ĠHor": 8086, "Ġretired": 8087, "Ġindicated": 8088, "usive": 8089, "Ġproducing": 8090, "ĠAbout": 8091, "ĠHarry": 8092, "Ġrapidly": 8093, "Ġrose": 8094, "Ġhide": 8095, "fr": 8096, "Ġcorporations": 8097, "Ġocean": 8098, "iy": 8099, "ĠRus": 8100, "aying": 8101, "owing": 8102, "Ġlistening": 8103, "ĠReuters": 8104, "ĠUFC": 8105, "ĠSat": 8106, "Ġtechnique": 8107, "Ġmo": 8108, "yard": 8109, "sels": 8110, "Ġloyal": 8111, "ĠNic": 8112, "lessly": 8113, "Ġrobot": 8114, "Ġclimb": 8115, "Ġnotion": 8116, "Ġbegun": 8117, "87": 8118, "Ġutil": 8119, "Ġrecognition": 8120, "Ġren": 8121, "ouver": 8122, "engers": 8123, "Ġperpet": 8124, "Ġassociation": 8125, "Ġmilk": 8126, "inf": 8127, "Ġasks": 8128, "Ġwebsites": 8129, "Ġdescription": 8130, "ĠPack": 8131, "Ġtickets": 8132, "ĠPen": 8133, "achus": 8134, "Ġflash": 8135, "Ġbra": 8136, "Ġsuggesting": 8137, "enny": 8138, "ĠJudge": 8139, "Ġexclusive": 8140, "Ġreaching": 8141, "Ġprepare": 8142, "iti": 8143, "ĠKansas": 8144, "Who": 8145, "ione": 8146, "Ġbail": 8147, "Ġfrag": 8148, "Ġprogressive": 8149, "Ġburd": 8150, "Ġexceed": 8151, "Ġequally": 8152, "ĠHard": 8153, "Ġhardly": 8154, "Ġwidespread": 8155, "ĠABC": 8156, "Ġcampaigns": 8157, "ĠMayor": 8158, "Ġcontribute": 8159, "udes": 8160, "ologists": 8161, "Ġbranch": 8162, "Look": 8163, "ĠRose": 8164, "Ġgrass": 8165, "Ġinitiative": 8166, "ĠMarket": 8167, "Ġethnic": 8168, "Ġexternal": 8169, "ikes": 8170, "ĠCirc": 8171, "uma": 8172, "rient": 8173, "Ġsensitive": 8174, "Ġpractical": 8175, "usted": 8176, "elf": 8177, "Ġunclear": 8178, "Ġnormally": 8179, "Ref": 8180, "Ġrepresentative": 8181, "pat": 8182, "ls": 8183, "89": 8184, "thon": 8185, "Ġwelf": 8186, "ĠFull": 8187, "Ġreducing": 8188, "appy": 8189, "Ġfriendly": 8190, "bec": 8191, "Ġcarefully": 8192, "ĠArabia": 8193, "ĠRef": 8194, "lad": 8195, "ester": 8196, "ĠLy": 8197, "PM": 8198, "ĠLuc": 8199, "Ġracist": 8200, "Ġinvent": 8201, "rical": 8202, "ouch": 8203, "PG": 8204, "ĠCO": 8205, "ĠNext": 8206, "Ġrespectively": 8207, "senal": 8208, "rator": 8209, "Ġtail": 8210, "imm": 8211, "ĠMcCain": 8212, "ĠBernie": 8213, "ancouver": 8214, "Ġoverwhelming": 8215, "Ġviewers": 8216, "ĠBeach": 8217, "stract": 8218, "Ġwelfare": 8219, "arrass": 8220, "ĠFurther": 8221, "Ġconvinced": 8222, "UN": 8223, "Ġsmoke": 8224, "umes": 8225, "Ġcollapse": 8226, "Ġinvolvement": 8227, "ĠLind": 8228, "Ġthrown": 8229, "pload": 8230, "Ġconnections": 8231, "heast": 8232, "Ġterrorists": 8233, "ĠBattle": 8234, "Ġstrategic": 8235, "Ġhook": 8236, "Ġ00": 8237, "ĠLatin": 8238, "Ġrecover": 8239, "omething": 8240, "igrant": 8241, "ĠOnt": 8242, "Ġwine": 8243, "Mc": 8244, "inois": 8245, "ĠMusic": 8246, "rolled": 8247, "Ġminds": 8248, "Ġvital": 8249, "Ġsettlement": 8250, "Ġstatistics": 8251, "Ġlists": 8252, "Ġvary": 8253, "ĠSir": 8254, "Ġfeaturing": 8255, "ĠESPN": 8256, "ecut": 8257, "ĠDig": 8258, "achusetts": 8259, "Ġbehaviour": 8260, "Ġindependence": 8261, "worth": 8262, "Ġfantasy": 8263, "Ġdevast": 8264, "nedy": 8265, "core": 8266, "uties": 8267, "Ġinvited": 8268, "Ġcomplaints": 8269, "Ġjoining": 8270, "Ġscores": 8271, "dem": 8272, "Ġfiscal": 8273, "Ġdeeper": 8274, "abil": 8275, "ĠPennsylvania": 8276, "ifest": 8277, "Ġsteal": 8278, "Ġanger": 8279, "Ġdeputy": 8280, "Ġelig": 8281, "Ġwars": 8282, "ĠSquare": 8283, "ĠTenn": 8284, "Ġinvestigate": 8285, "ĠTown": 8286, "Ġsugar": 8287, "Ġconstitutional": 8288, "ĠIII": 8289, "Ġscholars": 8290, "ĠPit": 8291, "ĠiOS": 8292, "Ġanybody": 8293, "Ġsubjects": 8294, "ĠAND": 8295, "Ġarray": 8296, "Ġalien": 8297, "FA": 8298, "ĠUlt": 8299, "ĠGov": 8300, "Ġlobby": 8301, "Ġownership": 8302, "Ġframework": 8303, "Ġunemployment": 8304, "ĠDivision": 8305, "Ġtransgender": 8306, "bn": 8307, "Ġimprovements": 8308, "ĠSS": 8309, "Ġmenu": 8310, "Ġpeak": 8311, "Back": 8312, "Ġscreens": 8313, "ihad": 8314, "Ġinject": 8315, "Ġluck": 8316, "iversary": 8317, "Ġdefine": 8318, "Ġtasks": 8319, "ĠXbox": 8320, "Ġdemocratic": 8321, "Ġscandal": 8322, "icking": 8323, "Ġjury": 8324, "acon": 8325, "ĠAnton": 8326, "Che": 8327, "ĠMinistry": 8328, "Ġcos": 8329, "ĠEs": 8330, "Ġcomprehens": 8331, "osit": 8332, "ĠKat": 8333, "Ġremem": 8334, "Ġdiscovery": 8335, "unior": 8336, "Ġregister": 8337, "Ġcasual": 8338, "Ġcitizen": 8339, "RI": 8340, "Ġfab": 8341, "Under": 8342, "een": 8343, "Ġroads": 8344, "Ġdisagree": 8345, "Ġfailing": 8346, "ĠNever": 8347, "ĠLittle": 8348, "ĠJay": 8349, "Ġdynamic": 8350, "Ġserves": 8351, "ĠCameron": 8352, "ĠBrother": 8353, "ĠMah": 8354, "Ġtestim": 8355, "Ġgathered": 8356, "ĠStone": 8357, "ĠInformation": 8358, "Sm": 8359, "Ġsoph": 8360, "oding": 8361, "Ġimplemented": 8362, "Ġcontroversy": 8363, "Ġcollective": 8364, "Ġtrained": 8365, "anna": 8366, "ĠNSA": 8367, "Ġneighbour": 8368, "Ġfears": 8369, "leveland": 8370, "Ġsamples": 8371, "Ġfiction": 8372, "Ġprosec": 8373, "agg": 8374, "Ġestimate": 8375, "ĠCommunity": 8376, "69": 8377, "ĠIce": 8378, "ĠMedical": 8379, "Ġ1997": 8380, "ĠPhilipp": 8381, "Ġreferring": 8382, "Ġtip": 8383, "Ġcaptain": 8384, "Will": 8385, "Ġ1996": 8386, "Ġspaces": 8387, "cific": 8388, "ĠWalker": 8389, "Ġversus": 8390, "Ġlegs": 8391, "ĠSanta": 8392, "'.": 8393, "Ġtemporary": 8394, "PC": 8395, "Ġnoise": 8396, "ĠHD": 8397, "Ġovert": 8398, "Ġincorpor": 8399, "Ġtone": 8400, "Ġvisitors": 8401, "Ġreven": 8402, "Ġcivilians": 8403, "Ġwages": 8404, "Ġhypot": 8405, "Ġsin": 8406, "Ġremarks": 8407, "Ġawareness": 8408, "ĠON": 8409, "ĠSpring": 8410, "Ġrecommended": 8411, "Ġstupid": 8412, "ĠAllen": 8413, "Ġheading": 8414, "Ġhandful": 8415, "Ġregulation": 8416, "icket": 8417, "ĠAction": 8418, "ĠCore": 8419, "Ġplatforms": 8420, "Ġaccus": 8421, "ĠAnthony": 8422, "Ġaffairs": 8423, "Ġtouchdown": 8424, "Ġrural": 8425, "Ġattacking": 8426, "gener": 8427, "Ġextend": 8428, "Ġultimate": 8429, "Ġattached": 8430, "ĠVegas": 8431, "Ġdiscussions": 8432, "ĠRen": 8433, "Ġhorse": 8434, "ĠBrew": 8435, "mad": 8436, "Ġreprodu": 8437, "Ġgenetic": 8438, "Ġexpanded": 8439, "Ġattempting": 8440, "phones": 8441, "ĠMatthew": 8442, "Ġraces": 8443, "including": 8444, "iry": 8445, "ĠQueen": 8446, "Ġraw": 8447, "Ġignore": 8448, "ĠColumbia": 8449, "serv": 8450, "ĠPent": 8451, "ĠGuardian": 8452, "hour": 8453, "ĠCook": 8454, "ĠiP": 8455, "itionally": 8456, "Ġgear": 8457, "Ġsymptoms": 8458, "ĠPatrick": 8459, "Ġsuffer": 8460, "Ġsettings": 8461, "ĠMake": 8462, "âĢĶâĢĶâĢĶâĢĶ": 8463, "alling": 8464, "Ġsalary": 8465, "case": 8466, "Ġlicens": 8467, "mary": 8468, "GO": 8469, "Ġtweeted": 8470, "angel": 8471, "Ġpublication": 8472, "Ġbrill": 8473, "Ġfactory": 8474, "Ġsuspected": 8475, "Ġpurchased": 8476, "aret": 8477, "Ġintervention": 8478, "Ġeastern": 8479, "Ġholiday": 8480, "type": 8481, "2014": 8482, "Ġtheat": 8483, "esh": 8484, "About": 8485, "Ġdispl": 8486, "Ġranked": 8487, "ĠBudd": 8488, "Ġneck": 8489, "ĠAustin": 8490, "ĠConservative": 8491, "ĠMuseum": 8492, "ective": 8493, "ĠRoy": 8494, "\")": 8495, "Ġcro": 8496, "Ġenormous": 8497, "Sen": 8498, "####": 8499, "intendo": 8500, "Ġcogn": 8501, "Ġlogic": 8502, "ultural": 8503, "ictions": 8504, "Ġimprovement": 8505, "ĠAPI": 8506, "Ġviewed": 8507, "Ġingred": 8508, "Ġentertainment": 8509, "Ass": 8510, "Ġlegitimate": 8511, "ĠProfessor": 8512, "ommod": 8513, "Ġpresum": 8514, "ĠAlbert": 8515, "ĠMassachusetts": 8516, "ĠBall": 8517, "Ġ2019": 8518, "Ġwww": 8519, "News": 8520, "Ġactors": 8521, "Ġsubstantial": 8522, "Ġhumanity": 8523, "Ġinvolves": 8524, "Ġresource": 8525, "arms": 8526, "Ġbrothers": 8527, "Ġliquid": 8528, "Ġrational": 8529, "Ġseemingly": 8530, "Ġsorry": 8531, "Ġlayer": 8532, "Ġloans": 8533, "Ġrook": 8534, "Ġinvestigating": 8535, "Ġabsence": 8536, "Ġproviders": 8537, "Ġtomorrow": 8538, "Ġfallen": 8539, "Ġbureau": 8540, "Ġgrounds": 8541, "Ġcoaches": 8542, "Ġstake": 8543, "Ġresign": 8544, "Ġouts": 8545, "rec": 8546, "Ġadvocates": 8547, "ĠâĤ¬": 8548, "RC": 8549, "Ġinvestigators": 8550, "Ġconspiracy": 8551, "Where": 8552, "Ġmedicine": 8553, "Ġdramatic": 8554, "Ġfulf": 8555, "Ġmonitor": 8556, "ĠChair": 8557, "EST": 8558, "repre": 8559, "Ġovers": 8560, "Ġchapter": 8561, "ĠSeason": 8562, "Ġcoc": 8563, "oval": 8564, "GE": 8565, "lah": 8566, "ĠHo": 8567, ".-": 8568, "Ġactivist": 8569, "plete": 8570, "ped": 8571, "Ġboat": 8572, "ĠCheck": 8573, "aka": 8574, "ĠControl": 8575, "Ġjur": 8576, "Ġsuspended": 8577, "Ġpapers": 8578, "Script": 8579, "ĠGreece": 8580, "Ġopinions": 8581, "ĠSuch": 8582, "ĠRoss": 8583, "Ġmissile": 8584, "ĠGolden": 8585, "Ġceleb": 8586, "ĠRevolution": 8587, "2016": 8588, "Ġstayed": 8589, "Ġcovers": 8590, "ĠRa": 8591, "ĠHead": 8592, "iverpool": 8593, "Ġdiversity": 8594, "otype": 8595, "Ġbars": 8596, "Part": 8597, "Ġgam": 8598, "Russ": 8599, "Ġembarrass": 8600, "xit": 8601, "Ġoffices": 8602, "ĠAcc": 8603, "rets": 8604, "ourse": 8605, "claim": 8606, "ĠPot": 8607, "hot": 8608, "ĠIranian": 8609, "ammed": 8610, "Ġdisrupt": 8611, "cover": 8612, "ĠWW": 8613, "Ġpreced": 8614, "Ġpoly": 8615, "Ġforest": 8616, "wered": 8617, "Ġcareful": 8618, "mat": 8619, "reprene": 8620, "vard": 8621, "Ġamid": 8622, "ĠHistory": 8623, "79": 8624, "ĠHospital": 8625, "isting": 8626, "ĠAle": 8627, "Ġauthent": 8628, "quest": 8629, "ĠIllinois": 8630, "ĠCBS": 8631, "ĠSony": 8632, "uction": 8633, "Ġham": 8634, "geon": 8635, "Related": 8636, "dit": 8637, "ĠAp": 8638, "74": 8639, "72": 8640, "rine": 8641, "Ġtransportation": 8642, "ĠVancouver": 8643, "ĠGaza": 8644, "Ġhanded": 8645, "Ġprotocol": 8646, "Ġconsistently": 8647, "Ġmountain": 8648, "Ġ52": 8649, "Ġreads": 8650, "ĠStat": 8651, "Ġpref": 8652, "Ġclothes": 8653, "Ġattitude": 8654, "iability": 8655, "ĠShare": 8656, "ĠKennedy": 8657, "Ġporn": 8658, "Ġprincip": 8659, "ĠFreedom": 8660, "Ġdepends": 8661, "Ġmining": 8662, "Ġpetition": 8663, "Ġnoting": 8664, "Ġwarrant": 8665, "des": 8666, "Ġconce": 8667, "Ġcolors": 8668, "Ġlowest": 8669, "ĠAnderson": 8670, "ĠTri": 8671, "Ġaddressed": 8672, "ĠFamily": 8673, "bi": 8674, "unes": 8675, "Ġentr": 8676, "Ste": 8677, "ĠStadium": 8678, "xx": 8679, "Ġthrowing": 8680, "Ġje": 8681, "Ġfruit": 8682, "Ġvirtually": 8683, "!)": 8684, "Ġstone": 8685, "Ġfoss": 8686, "ĠMean": 8687, "Ġguarantee": 8688, "Ġreferend": 8689, "Both": 8690, "??": 8691, "Ġspeaks": 8692, "ĠBaltimore": 8693, "inch": 8694, "Ġsteel": 8695, "Ġclosing": 8696, "Ġreader": 8697, "dri": 8698, "FF": 8699, "Ġbuff": 8700, "Ġpersonality": 8701, "Ġappreciate": 8702, "ĠCre": 8703, "ĠIraqi": 8704, "Ġsurf": 8705, "ĠEnvironment": 8706, "Ġnerv": 8707, "iences": 8708, "maker": 8709, "Ġkm": 8710, "keep": 8711, "Ġhandling": 8712, "Ġprofits": 8713, "ordon": 8714, "Ġgrav": 8715, "Ġmarks": 8716, "low": 8717, "Ġtries": 8718, "ĠBroad": 8719, "Ġcontributions": 8720, "ĠEngine": 8721, "ropri": 8722, "zed": 8723, "Ġspiritual": 8724, "Ġconversations": 8725, "Ġfantastic": 8726, "ĠTro": 8727, "Ġlands": 8728, "Ġconsole": 8729, "ila": 8730, "Ġhorror": 8731, "ppers": 8732, "\".[": 8733, "icity": 8734, "Ġgains": 8735, "Ġcovering": 8736, "Ġtea": 8737, "ivals": 8738, "ĠHarris": 8739, "Her": 8740, "Ġhint": 8741, "Ġastron": 8742, "aval": 8743, "Ġshoulder": 8744, "scale": 8745, "Ġwrest": 8746, "Ġguest": 8747, "ĠExt": 8748, "Ġaccommod": 8749, "uted": 8750, "uits": 8751, "Ġdepression": 8752, "ĠCA": 8753, "Ġ_": 8754, "ĠLewis": 8755, "Ġlucky": 8756, "ĠBang": 8757, "Ġencouraged": 8758, "flix": 8759, "amac": 8760, "Ġjudges": 8761, "Ġincidents": 8762, "ĠCleveland": 8763, "Ġdrew": 8764, "Ġsubsequent": 8765, "ira": 8766, "Ġspoken": 8767, "ĠHoward": 8768, "annels": 8769, "ĠBad": 8770, "Ġbrown": 8771, "Ġbacter": 8772, "Please": 8773, "ixed": 8774, "Ġrhet": 8775, "Ġranks": 8776, "ĠGetty": 8777, "Ġphotograp": 8778, "Ġinflation": 8779, "Ġinner": 8780, "ĠIntelligence": 8781, "ĠPo": 8782, "itting": 8783, "ĠBa": 8784, "Ġmaps": 8785, "abeth": 8786, "ĠPatri": 8787, "ported": 8788, "ijing": 8789, "plate": 8790, "Ġdivided": 8791, "Ġ1995": 8792, "ĠNATO": 8793, "********": 8794, "Ġparalle": 8795, "Ġdrama": 8796, "ĠMexican": 8797, "Ġdistributed": 8798, "Ġgal": 8799, "Ġinnovation": 8800, "Ġswing": 8801, "unicip": 8802, "Ġcust": 8803, "ĠUnfortunately": 8804, "Ġpremium": 8805, "Ġvoter": 8806, "Ġpermit": 8807, "Ġrevel": 8808, "ĠKong": 8809, "Ġtrem": 8810, "Ġdance": 8811, "Ġclim": 8812, "pled": 8813, "ĠLas": 8814, "Ġefficiency": 8815, "Ġpromises": 8816, "ĠIndeed": 8817, "Note": 8818, "eding": 8819, "ĠCH": 8820, "ĠWhich": 8821, "Ġballot": 8822, "Ġ51": 8823, "pie": 8824, "ĠAdv": 8825, "Ġtemperatures": 8826, "ĠSamsung": 8827, "Ġportray": 8828, "Ġspokesperson": 8829, "Ġlocked": 8830, "Ġlying": 8831, "Ġimproving": 8832, "Ġthrew": 8833, "Ġjoy": 8834, "Ġdump": 8835, "Art": 8836, "Ġmusical": 8837, "PP": 8838, "Ġmistakes": 8839, "dated": 8840, "Ġshout": 8841, "ĠStart": 8842, "Ġhomeless": 8843, "conf": 8844, "Ġreplacement": 8845, "eries": 8846, "Ġcomedy": 8847, "Ġchecks": 8848, "ĠWithout": 8849, "ĠMoon": 8850, "Ġinstrument": 8851, "ounce": 8852, "ĠConnect": 8853, "Ġacknowledged": 8854, "Ġbarrel": 8855, "Ġresponses": 8856, "Ġprotecting": 8857, "backs": 8858, "ĠDet": 8859, "ÂĴ": 8860, "Ġsilver": 8861, "Ġcopies": 8862, "heim": 8863, "Ġles": 8864, "ĠAC": 8865, "Ġdad": 8866, "Ġbreaks": 8867, "ĠPlus": 8868, "ĠBuff": 8869, "Ġcommonly": 8870, "Ġlets": 8871, "Ġlegacy": 8872, "itage": 8873, "Ġprotein": 8874, "Ġmathem": 8875, "Ġjoke": 8876, "amacare": 8877, "erted": 8878, "hop": 8879, "arre": 8880, "Ġpassengers": 8881, "2015": 8882, "Ġyellow": 8883, "ĠMarvel": 8884, "Ġnaturally": 8885, "Your": 8886, "ĠScient": 8887, "Ġnomination": 8888, "Source": 8889, "Ġmeasured": 8890, "aping": 8891, "oded": 8892, "alia": 8893, "ĠUse": 8894, "Ġabandoned": 8895, "Ġmad": 8896, "ĠPrince": 8897, "Ġstudied": 8898, "800": 8899, "ĠFootball": 8900, "helsea": 8901, "Ġdiverse": 8902, "argo": 8903, "Ġacquired": 8904, "ieties": 8905, "ĠLyn": 8906, "Cons": 8907, "esty": 8908, "Ġsoil": 8909, "ĠMarsh": 8910, "Ġdemonstrated": 8911, "Ġblast": 8912, "Ġrear": 8913, "Ġfunded": 8914, "Ġheadquarters": 8915, "hesis": 8916, "yo": 8917, "Ġstolen": 8918, "Ġscan": 8919, "Ġcounts": 8920, "Ġtape": 8921, "Ġpartnership": 8922, "Ġmidfield": 8923, "ĠNOT": 8924, "Ġ(âĢľ": 8925, "Ġupgrade": 8926, "ĠCost": 8927, "ĠAtlantic": 8928, "yer": 8929, "Ġmarch": 8930, "Ġordinary": 8931, "ĠAud": 8932, "ĠNev": 8933, "Ġrom": 8934, "aware": 8935, "Ġliterature": 8936, "Ġplain": 8937, "Ġstages": 8938, "ĠâĢ¢": 8939, "Ġassert": 8940, "Ġ1994": 8941, "high": 8942, "ĠAI": 8943, "Ġhelpful": 8944, "Ġarrive": 8945, "Ġexit": 8946, "Ġscope": 8947, "Ġfalls": 8948, "63": 8949, "dog": 8950, "Ġignored": 8951, "BM": 8952, "Ġtwenty": 8953, "eters": 8954, "ĠMaster": 8955, "Ġclock": 8956, "Ġcompe": 8957, "inction": 8958, "Ġvirus": 8959, "ĠTrib": 8960, "Ġreferendum": 8961, "Ġinequ": 8962, "Ġunions": 8963, "ĠDoes": 8964, "assador": 8965, "ĠGun": 8966, "Ġconservatives": 8967, "Ġrif": 8968, "Ġgrid": 8969, "Ġsymp": 8970, "Ġfestival": 8971, "Ġfro": 8972, "Ġshopping": 8973, "Ġwaters": 8974, "ĠPop": 8975, "Ġcapabilities": 8976, "ĠBron": 8977, "Ġax": 8978, "lahoma": 8979, "Ġusage": 8980, "ĠHind": 8981, "iate": 8982, "zing": 8983, "ĠEmpire": 8984, "aeda": 8985, "ĠAbb": 8986, "ington": 8987, "ĠIndiana": 8988, "iley": 8989, "Ġtransactions": 8990, "erg": 8991, "Ġhoped": 8992, "Ġdistract": 8993, "ĠAst": 8994, "Ġguitar": 8995, "VE": 8996, "ĠEag": 8997, "Ġsty": 8998, "Ġramp": 8999, "Ġassessment": 9000, "ctic": 9001, "Ġuniversities": 9002, "ĠDave": 9003, "Ġmoon": 9004, "Ġmonitoring": 9005, "ormal": 9006, "acket": 9007, "bridge": 9008, "Ġrepresenting": 9009, "Facebook": 9010, "Ġratio": 9011, "ĠDeath": 9012, "encing": 9013, "ught": 9014, "62": 9015, "ĠProv": 9016, "Ġconventional": 9017, "comes": 9018, "UST": 9019, "orge": 9020, "Ġtrave": 9021, "ĠSet": 9022, "Ġtracking": 9023, "door": 9024, "ntil": 9025, "ĠSometimes": 9026, "61": 9027, "only": 9028, "shire": 9029, "Ġhung": 9030, "ĠSus": 9031, "Ġreliable": 9032, "Ġtie": 9033, "Ġproposals": 9034, "Ġskept": 9035, "ĠHell": 9036, "Ġreplied": 9037, "ĠRos": 9038, "fund": 9039, "uh": 9040, "Ġcriticized": 9041, "Ġappearances": 9042, "rimin": 9043, "ĠHa": 9044, "ecutive": 9045, "ela": 9046, "Ġracism": 9047, "Ġinsisted": 9048, "organ": 9049, "Ġintroduction": 9050, "Ġ2020": 9051, "Ġappointed": 9052, "dney": 9053, "ĠBureau": 9054, "olph": 9055, "agic": 9056, "ĠPass": 9057, "cut": 9058, "Ke": 9059, "ĠLine": 9060, "Ġbeauty": 9061, "Ġconcrete": 9062, "Ġreceiver": 9063, "Ġsupplies": 9064, "Ġperforming": 9065, "made": 9066, "ji": 9067, "Ġbub": 9068, "Ġexch": 9069, "rite": 9070, "Ġvisiting": 9071, "ĠTechnology": 9072, "ĠDenver": 9073, "ocument": 9074, "EE": 9075, "omes": 9076, "ĠCapt": 9077, "theless": 9078, "RL": 9079, "Ġletting": 9080, "AND": 9081, "Ġdeficit": 9082, "Ġclassified": 9083, "ĠGalaxy": 9084, "Ġauto": 9085, "HT": 9086, "Ġrender": 9087, "Ġabsor": 9088, "ĠOrig": 9089, "Ġswim": 9090, "Ġaccomplish": 9091, "Ġprogramme": 9092, "Ġpresidency": 9093, "crib": 9094, "Ġblocked": 9095, "ĠSweden": 9096, "archy": 9097, "Ġdust": 9098, "ĠUtah": 9099, "Ġdrove": 9100, "Ġlandscape": 9101, "Ġcance": 9102, "ĠPortland": 9103, "plus": 9104, "Ġdismissed": 9105, "ĠLA": 9106, "Ġhyper": 9107, "Ġabroad": 9108, "Ġbonus": 9109, "ĠJam": 9110, "ĠTour": 9111, "har": 9112, "Ġsequence": 9113, "Ġpredicted": 9114, "Ġsenator": 9115, "Â°": 9116, "ĠAge": 9117, "Ġdomain": 9118, "ĠCode": 9119, "Ġec": 9120, "Ġmuseum": 9121, "Ġwarn": 9122, "ĠAssociated": 9123, "acco": 9124, "Ġpersons": 9125, "NS": 9126, "Ġdub": 9127, "iano": 9128, "aga": 9129, "Ġrequested": 9130, "Ġtrigger": 9131, "ĠOntario": 9132, "Ġhockey": 9133, "ĠCorpor": 9134, "Ġartific": 9135, "Ġdates": 9136, "Ġtestimony": 9137, "Ġcenters": 9138, "Ð»": 9139, "Ġrocket": 9140, "irts": 9141, "Ġves": 9142, "Ġtransit": 9143, "Ġcongressional": 9144, "Ġentitled": 9145, "ultane": 9146, "Ġspokeswoman": 9147, "ĠFront": 9148, "ĠNintendo": 9149, "ĠAlexander": 9150, "Ġrescue": 9151, "ĠCooper": 9152, "mony": 9153, "Ġassign": 9154, "ĠBon": 9155, "Ġequality": 9156, "Ġpatch": 9157, "Ġurged": 9158, "Ġbread": 9159, "ĠOlympic": 9160, "Ġdocumentary": 9161, "Ġveterans": 9162, "Ġclar": 9163, "fol": 9164, "93": 9165, "ais": 9166, "king": 9167, "ĠâĢĿ": 9168, "pton": 9169, "Ġrecall": 9170, "Ġpopulations": 9171, "94": 9172, "ĠLow": 9173, "Ġbreath": 9174, "Still": 9175, "92": 9176, "rooms": 9177, "Ġwhenever": 9178, "Ġviolation": 9179, "Ġtactics": 9180, "Ġwider": 9181, "71": 9182, "ounding": 9183, "ĠKar": 9184, "Ġtargeting": 9185, "Yet": 9186, "through": 9187, "Ġpursue": 9188, "Ġsalt": 9189, "\">": 9190, "Are": 9191, "izabeth": 9192, "Ġfiring": 9193, "don": 9194, "ĠMill": 9195, "Ġacid": 9196, "Ġmole": 9197, "inating": 9198, "Ġrestaurants": 9199, "Ġcompare": 9200, "73": 9201, "fare": 9202, "Comp": 9203, "orous": 9204, "ennis": 9205, "Ġwedd": 9206, "Ġemployed": 9207, "ĠRoberts": 9208, "Ġcontrad": 9209, "ĠBible": 9210, "Ġpolitically": 9211, "Ġphrase": 9212, "Ġsatellite": 9213, "ĠCro": 9214, "Ġsurvival": 9215, "Ġretirement": 9216, "Ġbanking": 9217, "ĠForm": 9218, "Ġbrilliant": 9219, "isons": 9220, "ĠGirl": 9221, "atar": 9222, "Ġchannels": 9223, "Ġservers": 9224, "ĠBeijing": 9225, "Ġsoccer": 9226, "trans": 9227, "aver": 9228, "ĠMach": 9229, "they": 9230, "Ġintroduce": 9231, "ĠJustin": 9232, "Ġexperiments": 9233, "enez": 9234, "Ġprisoners": 9235, "rapped": 9236, "Ġcig": 9237, "ĠWH": 9238, "afe": 9239, "jud": 9240, "Ġfighter": 9241, "600": 9242, "Ġscientist": 9243, "OK": 9244, "ĠYOU": 9245, "usalem": 9246, "ĠList": 9247, "Ġsubmit": 9248, "Ġapproached": 9249, "ĠAward": 9250, "Ġmonthly": 9251, "ĠLiverpool": 9252, "Ġdesigns": 9253, "Ġrepresentatives": 9254, "Ġtitled": 9255, "ordinary": 9256, "Ġquote": 9257, "Ġpopularity": 9258, "olves": 9259, "Ġabilities": 9260, "oenix": 9261, "Ġcul": 9262, "ĠPD": 9263, "Ġmembership": 9264, "Ġinvestigations": 9265, "Ġfocusing": 9266, "mans": 9267, "Ġhosp": 9268, "Ġbab": 9269, "ĠBridge": 9270, "Though": 9271, "ĠMaryland": 9272, "Ġsaving": 9273, "pa": 9274, "Ġrush": 9275, "ĠGovernor": 9276, "Ġshadow": 9277, "ouri": 9278, "bow": 9279, "ĠHur": 9280, "ĠBase": 9281, "Ġobjective": 9282, "berry": 9283, "ĠTed": 9284, "emed": 9285, "erts": 9286, "ederation": 9287, "Ġmit": 9288, "Ġprepar": 9289, "Ġtips": 9290, "ĠWas": 9291, "Ġpipeline": 9292, "David": 9293, "Ġchildhood": 9294, "ika": 9295, "Ġratings": 9296, "Ġthorough": 9297, "Ġentreprene": 9298, "enter": 9299, "ĠVill": 9300, "ĠDutch": 9301, "was": 9302, "break": 9303, "Ġactively": 9304, "ĠHarvard": 9305, "Ġpig": 9306, "ĠSom": 9307, "Ġdemanding": 9308, "Ġloose": 9309, "asty": 9310, "ĠBra": 9311, "Ġunexpected": 9312, "CO": 9313, "Ġsmoking": 9314, "Ġsmell": 9315, "Ġdeny": 9316, "Ġuniversal": 9317, "Ġforecast": 9318, "Ġargues": 9319, "Ġphenomenon": 9320, "Ġoverseas": 9321, "mers": 9322, "olds": 9323, "Ġsettled": 9324, "walk": 9325, "ĠBeck": 9326, "Ġgenerations": 9327, "Ġweekly": 9328, "Ġchicken": 9329, "Ġpreparing": 9330, "Ġ95": 9331, "Ġsmartphone": 9332, "Ġproducers": 9333, "Ġbutt": 9334, "ĠPA": 9335, "Ġlegislative": 9336, "Ġanxiety": 9337, "Ġdisturb": 9338, "ĠHave": 9339, "Ġinnocent": 9340, "minute": 9341, "ĠClick": 9342, "Ġmortg": 9343, "Ġcelebrate": 9344, "Dem": 9345, "ĠUr": 9346, "iki": 9347, "Ġprovision": 9348, "ĠDO": 9349, "Ġkeys": 9350, "ded": 9351, "Ġshame": 9352, "Ġarguing": 9353, "ĠDesign": 9354, "held": 9355, "Ġquestioned": 9356, "Ġforcing": 9357, "ĠCow": 9358, "ĠHop": 9359, "ompson": 9360, "agh": 9361, "âĶ": 9362, "Ġbroader": 9363, "Ġencounter": 9364, "SL": 9365, "Ġflags": 9366, "Ġfool": 9367, "Ġmac": 9368, "Ġ53": 9369, "Ġdeadly": 9370, "Ġfur": 9371, "84": 9372, "Ġreverse": 9373, "oz": 9374, "Ġweigh": 9375, "ĠEdward": 9376, "ĠAmong": 9377, "Ġtens": 9378, "Ġ~": 9379, "Ġmos": 9380, "Ġwealthy": 9381, "ĠObamacare": 9382, "Ġunpre": 9383, "Ġmaintained": 9384, "Ġsurely": 9385, "Ġshield": 9386, "ĠProp": 9387, "ocolate": 9388, "oret": 9389, "Ġsecondary": 9390, "isa": 9391, "aved": 9392, "Sim": 9393, "Ġsavings": 9394, "irlf": 9395, "Ġroof": 9396, "Ġstability": 9397, "Ġcivilian": 9398, "Ġtab": 9399, "elson": 9400, "Äĥ": 9401, "ĠCarter": 9402, "Ġreveals": 9403, "mind": 9404, "Ġmini": 9405, "Ġalarm": 9406, "Ġanniversary": 9407, "Ġsorts": 9408, "ois": 9409, "ĠAk": 9410, "vernment": 9411, "El": 9412, "Ġtonight": 9413, "Ġreleases": 9414, "ĠHon": 9415, "Ġrooms": 9416, "irlfriend": 9417, "isk": 9418, "ĠGulf": 9419, "Ġoutrage": 9420, "Ġprosecutors": 9421, "ĠLeft": 9422, "Ġdisorder": 9423, "inals": 9424, "Ġexha": 9425, "orious": 9426, "Ġshr": 9427, "Ġrelax": 9428, "Ġwindows": 9429, "Ġthreatening": 9430, "Ġdifferently": 9431, "Ġharassment": 9432, "Ġquoted": 9433, "Ġhealthcare": 9434, "Ġsubmitted": 9435, "Ġarbit": 9436, "Ġlunch": 9437, "step": 9438, "itter": 9439, "ĠRun": 9440, "Ġreforms": 9441, "Ġtorture": 9442, "rection": 9443, "Ġfate": 9444, "Ġstored": 9445, "Ġokay": 9446, "ĠBelg": 9447, "Ġpropaganda": 9448, "Ġspots": 9449, "Ġinstructions": 9450, "ĠVietnam": 9451, "Ġsevent": 9452, "Ġrounds": 9453, "Ġodds": 9454, "Ġ1992": 9455, "aa": 9456, "Ġaer": 9457, "html": 9458, "tenance": 9459, "Ġerrors": 9460, "ested": 9461, "ĠOklahoma": 9462, "Ġhydro": 9463, "icism": 9464, "GA": 9465, "Ġdelic": 9466, "ailed": 9467, "ĠLiberal": 9468, "Ġsilence": 9469, "ĠGraham": 9470, "acts": 9471, "ĠWarren": 9472, "Ġgraduate": 9473, "ĠSab": 9474, "Ġaffordable": 9475, "Ġcircle": 9476, "sect": 9477, "ĠBloom": 9478, "Ġcooperation": 9479, "Ġpicks": 9480, "Ġsear": 9481, "itary": 9482, "ĠSarah": 9483, "ĠFall": 9484, "orship": 9485, "ĠExpl": 9486, "Ġstriking": 9487, "Ġpuzz": 9488, "Ġpersu": 9489, "Ġstreaming": 9490, "Ġcomprehensive": 9491, "race": 9492, "Ġimportantly": 9493, "Ġcow": 9494, "Ġpossess": 9495, "Watch": 9496, "Ġfing": 9497, "Ġexecution": 9498, "ĠRuby": 9499, "lined": 9500, "rows": 9501, "Ġintim": 9502, "Ġstruggled": 9503, "ĠPerson": 9504, "Ġassass": 9505, "ĠSilver": 9506, "ĠLeader": 9507, "uten": 9508, "ahu": 9509, "Ġgent": 9510, "Ty": 9511, "ĠPrice": 9512, "Reuters": 9513, "ishop": 9514, "Ġdeserve": 9515, "ĠJerusalem": 9516, "Ġlanding": 9517, "Ġcalm": 9518, "Ġalter": 9519, "Ġceremony": 9520, "Ġassumed": 9521, "Ġdemonstrate": 9522, "Ġdifficulty": 9523, "83": 9524, "Ġages": 9525, "Ġpron": 9526, "Ġdying": 9527, "Ġhal": 9528, "Ġdistingu": 9529, "asury": 9530, "Ġstepped": 9531, "ethe": 9532, "Ġborders": 9533, "Ġchest": 9534, "ĠWolf": 9535, "ĠLt": 9536, "Ġadventure": 9537, "Ġpointing": 9538, "ova": 9539, "Ġwaves": 9540, "Ġkilomet": 9541, "essee": 9542, "ierce": 9543, "ĠNetflix": 9544, "atern": 9545, "Ġautonom": 9546, "eals": 9547, "Ġprecisely": 9548, "Ġarchitecture": 9549, "Ġgreatly": 9550, "ĠDeb": 9551, "Ġpromising": 9552, "Ġconsent": 9553, "bury": 9554, "Ġconsideration": 9555, "ĠTen": 9556, "Ġdrives": 9557, "Ġdialogue": 9558, "ĠMain": 9559, "Ġtremend": 9560, "ĠBud": 9561, "asant": 9562, "Ġnewsletter": 9563, "Ġrookie": 9564, "Ġawarded": 9565, "ĠMeanwhile": 9566, "after": 9567, "Ġrepeat": 9568, "ĠStory": 9569, "Ġcontribution": 9570, "ĠTele": 9571, "Ġburning": 9572, "iev": 9573, "party": 9574, "Ġsimultane": 9575, "ĠScottish": 9576, "ĠVice": 9577, "Ġdonations": 9578, "ĠIndust": 9579, "akh": 9580, "Ġinterf": 9581, "itol": 9582, "ĠMagic": 9583, "Ġvoices": 9584, "Ġanalyst": 9585, "ĠBruce": 9586, "ĠTech": 9587, "ceptions": 9588, "Ġgif": 9589, "Ġfrequency": 9590, "ĠCommon": 9591, "Ġprocedure": 9592, "Ġwanting": 9593, "ĠPres": 9594, "Ġexecutives": 9595, "Ġplayoffs": 9596, "lee": 9597, "oice": 9598, "Ġstaying": 9599, "apolis": 9600, "Ġbirds": 9601, "Ġbias": 9602, "VD": 9603, "ĠHong": 9604, "ĠAz": 9605, "izer": 9606, "Ġinches": 9607, "Ġtrillion": 9608, "omy": 9609, "holders": 9610, "Ġhighlights": 9611, "Ġsemi": 9612, "Ġremarkable": 9613, "Ġwhereas": 9614, "EX": 9615, "ributes": 9616, "ĠPalestinians": 9617, "Ġknee": 9618, "open": 9619, "ĠJonathan": 9620, "Ġans": 9621, "raig": 9622, "Ġimplications": 9623, "scribe": 9624, "Ġformation": 9625, "Ġsuperior": 9626, "Ġstrategies": 9627, "itual": 9628, "ĠBerlin": 9629, "Step": 9630, "ĠLink": 9631, "stal": 9632, "div": 9633, "ĠSydney": 9634, "ĠMORE": 9635, "Ġcategories": 9636, "ĠArk": 9637, "Ġfet": 9638, "Ġfollowers": 9639, "Ġcream": 9640, "Story": 9641, "portation": 9642, "FO": 9643, "Ġcontacted": 9644, "Ms": 9645, "Ġjudgment": 9646, "annon": 9647, "Ġsmile": 9648, "Ġinfo": 9649, "Ġemerging": 9650, "igious": 9651, "rif": 9652, "js": 9653, "onder": 9654, "omed": 9655, "yes": 9656, "bered": 9657, "vision": 9658, "ĠEff": 9659, "vertisements": 9660, "iffs": 9661, "hatt": 9662, "Ġaccessible": 9663, "Ġcrimin": 9664, "TP": 9665, "Ġphysically": 9666, "Ġassigned": 9667, "Ġ54": 9668, "ĠAndre": 9669, "Ġguidelines": 9670, "Ġdefeated": 9671, "Ġwounded": 9672, "Ġtrials": 9673, "Ġstem": 9674, "Ġmanaging": 9675, "Ġspell": 9676, "Ġministry": 9677, "Ġgrade": 9678, "Ġcoinc": 9679, "Ġriding": 9680, "Ġindicates": 9681, "Ġcenturies": 9682, "Christ": 9683, "cest": 9684, "ĠAffairs": 9685, "Ġopens": 9686, "aki": 9687, "Ġpharm": 9688, "lla": 9689, "->": 9690, "Ġmeaningful": 9691, "Ġtiss": 9692, "erent": 9693, "ĠMrs": 9694, "Ġease": 9695, "child": 9696, "Ġmargin": 9697, "ĠStore": 9698, "Ġclothing": 9699, "ĠâĪĴ": 9700, "ĠTes": 9701, "ĠSix": 9702, "ĠCapital": 9703, "Ġparticipation": 9704, "cedented": 9705, "Mus": 9706, "Ġrevers": 9707, "aria": 9708, "Ġpoison": 9709, "ĠBrexit": 9710, "Ġ120": 9711, "ĠYemen": 9712, "Ġlapt": 9713, "Ġcompeting": 9714, "Ġmemories": 9715, "ĠCS": 9716, "Ġtheories": 9717, "Ġrecipe": 9718, "Ġgross": 9719, "umble": 9720, "author": 9721, "hard": 9722, "91": 9723, "Ġpassage": 9724, "sl": 9725, "Ġaged": 9726, "ĠCredit": 9727, "Ġbin": 9728, "Ġdrone": 9729, "Ġblank": 9730, "Ġdispute": 9731, "Ġdamaged": 9732, "Ġ1993": 9733, "van": 9734, "ĠHamilton": 9735, "base": 9736, "Ġsubstance": 9737, "Ġhosted": 9738, "TER": 9739, "Google": 9740, "ĠChelsea": 9741, "ĠLam": 9742, "Ġpromoting": 9743, "Ġfacilit": 9744, "Ġopenly": 9745, "ĠInstagram": 9746, "Ġ1950": 9747, "ĠVik": 9748, "View": 9749, "ĠChildren": 9750, "ĠCrime": 9751, "Ġclinical": 9752, "Out": 9753, "Ġnic": 9754, "eremy": 9755, "ĠHold": 9756, "bits": 9757, "Ġinvestments": 9758, "Ġconsensus": 9759, "even": 9760, "igate": 9761, "ĠLeon": 9762, "ses": 9763, "ĠFal": 9764, "Ġeducational": 9765, "ito": 9766, "const": 9767, "Ġdish": 9768, "Ġmanifest": 9769, "Ġcustody": 9770, "week": 9771, "82": 9772, "Ġeligible": 9773, "ĠHawai": 9774, "Ġlegally": 9775, "Ġmissions": 9776, "Ġendorse": 9777, "Ġgate": 9778, "eria": 9779, "Ġmemo": 9780, "ĠGT": 9781, "Ġtables": 9782, "ĠPict": 9783, "Ġnin": 9784, "Ġstudying": 9785, "Hz": 9786, "Ġ?": 9787, "Ġcharity": 9788, "aration": 9789, "adi": 9790, "Ġaddresses": 9791, "Ġinspect": 9792, "Ġdiscount": 9793, "rix": 9794, "left": 9795, "Ġbattles": 9796, "ALL": 9797, "ĠDer": 9798, "Ġ250": 9799, "ĠAssembly": 9800, "Ġathletes": 9801, "Pre": 9802, "ĠTrade": 9803, "Ġfossil": 9804, "Ġenthusi": 9805, "ĠManagement": 9806, "iac": 9807, "Ġsuspects": 9808, "Ġtired": 9809, "Ġhelic": 9810, "Act": 9811, "Ġcounterpart": 9812, "Ġna": 9813, "achel": 9814, "Ġdating": 9815, "ĠEth": 9816, "Ġspectrum": 9817, "ĠMetro": 9818, "ateral": 9819, "ĠStation": 9820, "ĠBal": 9821, "Ġpresentation": 9822, "Ġlux": 9823, "gered": 9824, "arts": 9825, "Ġbottle": 9826, "Ġtap": 9827, "riors": 9828, "Ġvig": 9829, "Ġfundra": 9830, "Ġenhance": 9831, "assy": 9832, "ĠSean": 9833, "Ġtherapy": 9834, "ĠWales": 9835, "ĠExper": 9836, "Ġperceived": 9837, "market": 9838, "ĠTok": 9839, "Ġdominant": 9840, "Def": 9841, "math": 9842, "Ġbacking": 9843, "ĠFestival": 9844, "Ġunderlying": 9845, "Ġdefending": 9846, "ĠThrough": 9847, "Ġracing": 9848, "Ġdiscussing": 9849, "Ġburden": 9850, "Ġexpanding": 9851, "Ġmuscle": 9852, "Ġstops": 9853, "uz": 9854, "Ġbeings": 9855, "ĠMarx": 9856, "ĠEqu": 9857, "Ġtransaction": 9858, "ĠUber": 9859, "Ġ99": 9860, "Cal": 9861, "Ġrecruit": 9862, "itudes": 9863, "acher": 9864, "ĠGary": 9865, "Ġmood": 9866, "Ġpicking": 9867, "81": 9868, "lando": 9869, "ylum": 9870, "player": 9871, "Ġmanagers": 9872, "orable": 9873, "Ġgathering": 9874, "Ġhopefully": 9875, "angle": 9876, "ĠSon": 9877, "alysis": 9878, "ĠVideo": 9879, "section": 9880, "Ġcrus": 9881, "ĠLibya": 9882, "Ġimpression": 9883, "Ġhip": 9884, "olar": 9885, "Ã¢": 9886, "Ġscrut": 9887, "Ġroy": 9888, "ĠTai": 9889, "igenous": 9890, "Ġinstitution": 9891, "ĠBatman": 9892, "}}": 9893, "Ġstere": 9894, "Ġprocedures": 9895, "Ã±": 9896, "Ġpocket": 9897, "Ġcreatures": 9898, "ĠBoe": 9899, "Ġcompat": 9900, "Ġarrival": 9901, "ptions": 9902, "sa": 9903, "watch": 9904, "Ġeager": 9905, "Ġpollution": 9906, "iture": 9907, "Ġkitchen": 9908, "Ġfoods": 9909, "ocial": 9910, "Ġrecre": 9911, "Ġsurviv": 9912, "roph": 9913, "Ġorganic": 9914, "ĠPentagon": 9915, "ĠMorgan": 9916, "Ġshipping": 9917, "Ġcapitalism": 9918, "Ġinsult": 9919, "Ġtiming": 9920, "sub": 9921, "odox": 9922, "Ġrequirement": 9923, "Ġunfair": 9924, "aders": 9925, "Ġ56": 9926, "Ġmice": 9927, "ĠAssad": 9928, "Rem": 9929, "ĠRepresent": 9930, "ĠMess": 9931, "ĠMLS": 9932, "bing": 9933, "atively": 9934, "ĠElizabeth": 9935, "ĠOp": 9936, "Ġdiseases": 9937, "Mod": 9938, "Ġindustries": 9939, "ĠOakland": 9940, "dy": 9941, "Ġbowl": 9942, "oln": 9943, "ĠMurray": 9944, "ĠCreat": 9945, "Ġsed": 9946, "Ġhelicop": 9947, "Ġdivor": 9948, "agger": 9949, "Ġbeach": 9950, "Ġpunishment": 9951, "abet": 9952, "Ġshell": 9953, "***": 9954, "Ġfled": 9955, "Ġhospitals": 9956, "missions": 9957, "Ġtons": 9958, "AF": 9959, "ĠKick": 9960, "Ġseed": 9961, "ogy": 9962, "ĠComey": 9963, "opyright": 9964, "Ġstatist": 9965, "Ġengineers": 9966, "Ġobsc": 9967, "Ġhire": 9968, "SC": 9969, "Ġmodule": 9970, "AY": 9971, "amous": 9972, "Ġcoaching": 9973, "oca": 9974, "Ġanswered": 9975, "rac": 9976, "Reg": 9977, "TR": 9978, "Ġgraphics": 9979, "Ġregulatory": 9980, "Ġsovere": 9981, "Ġstance": 9982, "alties": 9983, "Ġbow": 9984, "ĠKeep": 9985, "Click": 9986, "Ġexplaining": 9987, "Ġrhetoric": 9988, "Ġbeating": 9989, "ĠFriend": 9990, "Ġtut": 9991, "ĠEmail": 9992, "rior": 9993, "ĠYeah": 9994, "emic": 9995, "Ġacknowledge": 9996, "ĠMichel": 9997, "Ġprincipal": 9998, "ĠMit": 9999}